{
  "version": "1.0",
  "truncation": null,
  "padding": null,
  "added_tokens": [
    {
      "id": 0,
      "content": "<pad>",
      "single_word": false,
      "lstrip": false,
      "rstrip": false,
      "normalized": false,
      "special": true
    },
    {
      "id": 1,
      "content": "<bos>",
      "single_word": false,
      "lstrip": false,
      "rstrip": false,
      "normalized": false,
      "special": true
    },
    {
      "id": 2,
      "content": "<eos>",
      "single_word": false,
      "lstrip": false,
      "rstrip": false,
      "normalized": false,
      "special": true
    },
    {
      "id": 3,
      "content": "<unk>",
      "single_word": false,
      "lstrip": false,
      "rstrip": false,
      "normalized": false,
      "special": true
    }
  ],
  "normalizer": null,
  "pre_tokenizer": {
    "type": "ByteLevel",
    "add_prefix_space": false,
    "trim_offsets": true,
    "use_regex": true
  },
  "post_processor": null,
  "decoder": {
    "type": "ByteLevel",
    "add_prefix_space": true,
    "trim_offsets": true,
    "use_regex": true
  },
  "model": {
    "type": "BPE",
    "dropout": null,
    "unk_token": null,
    "continuing_subword_prefix": null,
    "end_of_word_suffix": null,
    "fuse_unk": false,
    "byte_fallback": false,
    "ignore_merges": false,
    "vocab": {
      "<pad>": 0,
      "<bos>": 1,
      "<eos>": 2,
      "<unk>": 3,
      "!": 4,
      "\"": 5,
      "#": 6,
      "$": 7,
      "%": 8,
      "&": 9,
      "'": 10,
      "(": 11,
      ")": 12,
      "*": 13,
      "+": 14,
      ",": 15,
      "-": 16,
      ".": 17,
      "/": 18,
      "0": 19,
      "1": 20,
      "2": 21,
      "3": 22,
      "4": 23,
      "5": 24,
      "6": 25,
      "7": 26,
      "8": 27,
      "9": 28,
      ":": 29,
      ";": 30,
      "<": 31,
      "=": 32,
      ">": 33,
      "?": 34,
      "@": 35,
      "A": 36,
      "B": 37,
      "C": 38,
      "D": 39,
      "E": 40,
      "F": 41,
      "G": 42,
      "H": 43,
      "I": 44,
      "J": 45,
      "K": 46,
      "L": 47,
      "M": 48,
      "N": 49,
      "O": 50,
      "P": 51,
      "Q": 52,
      "R": 53,
      "S": 54,
      "T": 55,
      "U": 56,
      "V": 57,
      "W": 58,
      "X": 59,
      "Y": 60,
      "Z": 61,
      "[": 62,
      "\\": 63,
      "]": 64,
      "^": 65,
      "_": 66,
      "`": 67,
      "a": 68,
      "b": 69,
      "c": 70,
      "d": 71,
      "e": 72,
      "f": 73,
      "g": 74,
      "h": 75,
      "i": 76,
      "j": 77,
      "k": 78,
      "l": 79,
      "m": 80,
      "n": 81,
      "o": 82,
      "p": 83,
      "q": 84,
      "r": 85,
      "s": 86,
      "t": 87,
      "u": 88,
      "v": 89,
      "w": 90,
      "x": 91,
      "y": 92,
      "z": 93,
      "{": 94,
      "|": 95,
      "}": 96,
      "~": 97,
      "¬": 98,
      "â": 99,
      "Ċ": 100,
      "č": 101,
      "Ġ": 102,
      "Ģ": 103,
      "Ĥ": 104,
      "Į": 105,
      "Ĳ": 106,
      "Ķ": 107,
      "ĺ": 108,
      "Ļ": 109,
      "ľ": 110,
      "Ŀ": 111,
      "ĠĠ": 112,
      "čĊ": 113,
      "ččĊ": 114,
      "ĠĠĠĠ": 115,
      "in": 116,
      "er": 117,
      "ut": 118,
      "ĠĠĠĠĠĠĠĠ": 119,
      "Ġin": 120,
      "Ġt": 121,
      "put": 122,
      "//": 123,
      "--": 124,
      "re": 125,
      "lo": 126,
      "st": 127,
      "Ġa": 128,
      "Ġp": 129,
      "Ġinput": 130,
      "at": 131,
      "or": 132,
      "en": 133,
      "ic": 134,
      "le": 135,
      "on": 136,
      "Ġc": 137,
      "ĠĠĠ": 138,
      "he": 139,
      "ar": 140,
      "im": 141,
      "Ġlo": 142,
      "it": 143,
      "de": 144,
      "Ġo": 145,
      "Ġs": 146,
      "Ġb": 147,
      "gic": 148,
      "am": 149,
      "Ġlogic": 150,
      "al": 151,
      "Ġ//": 152,
      "et": 153,
      "Ġthe": 154,
      "----": 155,
      "Ġ[": 156,
      "mo": 157,
      "Ġ=": 158,
      "du": 159,
      "ed": 160,
      "Ġ(": 161,
      "es": 162,
      "Ġf": 163,
      "dule": 164,
      "module": 165,
      "ct": 166,
      "as": 167,
      "an": 168,
      "aram": 169,
      "is": 170,
      "Ġd": 171,
      "lk": 172,
      "ĠĠĠĠĠĠĠĠĠĠĠĠĠĠĠĠ": 173,
      "ion": 174,
      "Ġr": 175,
      "::": 176,
      "pk": 177,
      "Ġ.": 178,
      "pkg": 179,
      "ro": 180,
      "ata": 181,
      "aramet": 182,
      "arameter": 183,
      "ing": 184,
      "Ġparameter": 185,
      "Ġout": 186,
      "Ġint": 187,
      "Ġto": 188,
      "Ġoutput": 189,
      "ig": 190,
      "ck": 191,
      "rim": 192,
      "if": 193,
      "ert": 194,
      "ort": 195,
      "Ġw": 196,
      "port": 197,
      "nd": 198,
      "Ġre": 199,
      "co": 200,
      "id": 201,
      ");": 202,
      "Ġim": 203,
      "th": 204,
      "Ġclk": 205,
      "ul": 206,
      "ec": 207,
      "Ġu": 208,
      "Ġprim": 209,
      "ni": 210,
      "ac": 211,
      "--------": 212,
      "ent": 213,
      "ign": 214,
      "00": 215,
      "Ġimport": 216,
      "Ġm": 217,
      "ĠI": 218,
      "Ġrst": 219,
      "Ġ1": 220,
      "ĠS": 221,
      "err": 222,
      "Ġbe": 223,
      "ĠT": 224,
      "um": 225,
      "////": 226,
      "Ġfor": 227,
      "::*": 228,
      "::*;": 229,
      "nt": 230,
      "ĠĠĠĠĠĠĠ": 231,
      "ad": 232,
      "reg": 233,
      "idth": 234,
      "ĠC": 235,
      "Ġis": 236,
      "gr": 237,
      "ĠD": 238,
      "ation": 239,
      "Ġof": 240,
      "Width": 241,
      "Ġand": 242,
      "est": 243,
      "data": 244,
      "Ġdata": 245,
      "#(": 246,
      "Ġde": 247,
      "Ġal": 248,
      "rl": 249,
      "rst": 250,
      "ass": 251,
      "ctrl": 252,
      "Ġth": 253,
      "ded": 254,
      "ub": 255,
      "ve": 256,
      "ĠR": 257,
      "clk": 258,
      "lock": 259,
      "ab": 260,
      "Ġh": 261,
      "il": 262,
      "ĠĠĠĠĠĠĠĠĠĠĠĠ": 263,
      "Ġtl": 264,
      "Ġco": 265,
      "Ġbit": 266,
      "ip": 267,
      "ag": 268,
      "Ġ*": 269,
      "](": 270,
      "tp": 271,
      "se": 272,
      "sign": 273,
      "./": 274,
      "Ġas": 275,
      "end": 276,
      "ver": 277,
      "able": 278,
      "../": 279,
      "ĠA": 280,
      "ect": 281,
      "mgr": 282,
      "ĠP": 283,
      "ubi": 284,
      "rom": 285,
      "assert": 286,
      "tl": 287,
      "ĠO": 288,
      "ch": 289,
      "low": 290,
      "),": 291,
      "ib": 292,
      "Ġn": 293,
      "Ġst": 294,
      "Ġ#(": 295,
      "gen": 296,
      "ex": 297,
      "Ġcon": 298,
      "em": 299,
      "ce": 300,
      "ol": 301,
      "us": 302,
      "ash": 303,
      "Ġon": 304,
      "sv": 305,
      "ind": 306,
      "Ġ^": 307,
      "Ġsy": 308,
      "ith": 309,
      "oc": 310,
      "ke": 311,
      "Num": 312,
      "op": 313,
      "wa": 314,
      "ist": 315,
      "ĠĠĠĠĠ": 316,
      "Ġ`": 317,
      "erf": 318,
      "32": 319,
      "un": 320,
      "ard": 321,
      "Ġl": 322,
      "ate": 323,
      "erfac": 324,
      "Ġun": 325,
      "ly": 326,
      "////////": 327,
      "##": 328,
      "mubi": 329,
      "Ġtlul": 330,
      "----------------": 331,
      "sec": 332,
      "ain": 333,
      "io": 334,
      "Ġ&": 335,
      "pl": 336,
      "Ġerr": 337,
      "hw": 338,
      "ity": 339,
      "vic": 340,
      "ot": 341,
      "Ġwith": 342,
      "ĠE": 343,
      "heck": 344,
      "vice": 345,
      "../../": 346,
      "sr": 347,
      "ur": 348,
      "signed": 349,
      "ht": 350,
      "and": 351,
      "Ġen": 352,
      "Ġby": 353,
      "ction": 354,
      "secded": 355,
      "el": 356,
      "Ġ0": 357,
      "cl": 358,
      "Ġ\"": 359,
      "Ġunsigned": 360,
      "Ġ|": 361,
      "val": 362,
      "wr": 363,
      "up": 364,
      "ow": 365,
      "cal": 366,
      "om": 367,
      "ĠB": 368,
      "Ġ2": 369,
      "Ġ^(": 370,
      "fer": 371,
      "pec": 372,
      "ire": 373,
      "uf": 374,
      "yp": 375,
      "his": 376,
      "res": 377,
      "clu": 378,
      "Ġ);": 379,
      "ĠM": 380,
      "yn": 381,
      "core": 382,
      "ated": 383,
      "Ġres": 384,
      "ĠĠĠĠĠĠĠĠĠ": 385,
      "ment": 386,
      "ndrom": 387,
      "ndrome": 388,
      "ject": 389,
      "art": 390,
      "Ġus": 391,
      "clude": 392,
      "vi": 393,
      "Ġtest": 394,
      "req": 395,
      "gin": 396,
      "tps": 397,
      "ĠH": 398,
      "://": 399,
      "iz": 400,
      "Ġreg": 401,
      "int": 402,
      "0000": 403,
      "ĠF": 404,
      "Ġthat": 405,
      "Ġcom": 406,
      "https": 407,
      "bo": 408,
      "dr": 409,
      "her": 410,
      "Ġsign": 411,
      "Ġbegin": 412,
      "md": 413,
      "ult": 414,
      "pecif": 415,
      "ap": 416,
      "ĠThe": 417,
      "Ġalert": 418,
      "age": 419,
      "Ġlocal": 420,
      "Ġ-": 421,
      "ĠInt": 422,
      "ack": 423,
      "Ġit": 424,
      "ibex": 425,
      "Ġbind": 426,
      "ĠĠĠĠĠĠĠĠĠĠĠĠĠĠĠĠĠĠĠĠĠĠĠĠĠĠĠĠĠĠĠĠ": 427,
      "Ġerror": 428,
      "AD": 429,
      "ware": 430,
      "ial": 431,
      "prim": 432,
      "fp": 433,
      "mac": 434,
      "pi": 435,
      "ys": 436,
      "64": 437,
      "lert": 438,
      "**": 439,
      "lop": 440,
      "com": 441,
      "Ġsignal": 442,
      "dv": 443,
      "Ġlocalp": 444,
      "Ġclock": 445,
      "Ġan": 446,
      "org": 447,
      "Ġlocalparam": 448,
      "include": 449,
      "fpv": 450,
      "Ġthis": 451,
      "Ġ**": 452,
      "qu": 453,
      "Ġg": 454,
      "FF": 455,
      "itan": 456,
      "Ġpro": 457,
      "unction": 458,
      "erfaces": 459,
      "ĠĠĠĠĠĠĠĠĠĠ": 460,
      "Ġsyndrome": 461,
      "out": 462,
      "ync": 463,
      "lash": 464,
      "ple": 465,
      "ĠW": 466,
      "31": 467,
      "ler": 468,
      "tr": 469,
      "ĠV": 470,
      "tb": 471,
      "ĠĠĠĠĠĠĠĠĠĠĠĠĠĠ": 472,
      "po": 473,
      "test": 474,
      "ive": 475,
      "ep": 476,
      "Ġare": 477,
      "to": 478,
      "ĠN": 479,
      "unt": 480,
      "Ġcheck": 481,
      "ĠIn": 482,
      "yc": 483,
      "Ġ<": 484,
      "per": 485,
      "key": 486,
      "Ġreset": 487,
      "endmodule": 488,
      "ication": 489,
      "ĠEn": 490,
      "ha": 491,
      "Ġmodule": 492,
      "alert": 493,
      "ĠĠĠĠĠĠ": 494,
      "ions": 495,
      "Ġif": 496,
      "cr": 497,
      "eg": 498,
      "ask": 499,
      "Ġ32": 500,
      "Ġad": 501,
      "gener": 502,
      "Ġcont": 503,
      "ide": 504,
      "Ġlc": 505,
      "Ġall": 506,
      "inv": 507,
      "one": 508,
      "39": 509,
      "amm": 510,
      "isc": 511,
      "ycle": 512,
      "ure": 513,
      "mode": 514,
      "py": 515,
      "Ġe": 516,
      "top": 517,
      "unctional": 518,
      "bit": 519,
      "iv": 520,
      "ĠĠĠĠĠĠĠĠĠĠĠĠĠ": 521,
      "Ġflash": 522,
      "valid": 523,
      "rol": 524,
      "ister": 525,
      "ME": 526,
      "ards": 527,
      "risc": 528,
      "ux": 529,
      "doc": 530,
      "lc": 531,
      "Ġotp": 532,
      "con": 533,
      "ost": 534,
      "ase": 535,
      "Ġwire": 536,
      "ile": 537,
      "ipher": 538,
      "sync": 539,
      "![": 540,
      "ĠL": 541,
      "Ġper": 542,
      "AS": 543,
      "tx": 544,
      "svg": 545,
      "ĠG": 546,
      "ument": 547,
      "ages": 548,
      "The": 549,
      "list": 550,
      "str": 551,
      "ocument": 552,
      "ĠClock": 553,
      "erface": 554,
      "IN": 555,
      "ran": 556,
      "ory": 557,
      "wrmgr": 558,
      "Ġ:": 559,
      "ardware": 560,
      "72": 561,
      "inject": 562,
      "Ġassign": 563,
      "Ġ<=": 564,
      "ges": 565,
      "Ġend": 566,
      "ype": 567,
      "ĠThis": 568,
      "////////////////": 569,
      "ue": 570,
      "ĠNum": 571,
      "amming": 572,
      "Ġrv": 573,
      "mux": 574,
      "Ġat": 575,
      "coded": 576,
      "macro": 577,
      "RE": 578,
      "Ġfrom": 579,
      "ant": 580,
      "util": 581,
      "lowrisc": 582,
      "Ġ**`": 583,
      "`**": 584,
      "hamming": 585,
      "ways": 586,
      "ashbo": 587,
      "can": 588,
      "Ġibex": 589,
      "Ġact": 590,
      "This": 591,
      "Ġ)": 592,
      "In": 593,
      "Ġdocument": 594,
      "![](": 595,
      "ter": 596,
      "ased": 597,
      "Ġcan": 598,
      "ize": 599,
      "ge": 600,
      "Ġass": 601,
      "ber": 602,
      "dashbo": 603,
      "pen": 604,
      "Ġfunctional": 605,
      "ĠčĊ": 606,
      "enc": 607,
      "dec": 608,
      "bad": 609,
      "Ġ$": 610,
      "Ġused": 611,
      "dashboards": 612,
      "badges": 613,
      "ER": 614,
      "cov": 615,
      "ĠIP": 616,
      "Ġalways": 617,
      "bind": 618,
      "Ġset": 619,
      "velop": 620,
      "ĠEnable": 621,
      "Alert": 622,
      "code": 623,
      "acl": 624,
      "fg": 625,
      "rit": 626,
      "Ġnot": 627,
      "Ġaes": 628,
      "Ġwh": 629,
      "Ġram": 630,
      ").": 631,
      "==": 632,
      "aon": 633,
      "fo": 634,
      "Ġrequ": 635,
      "buf": 636,
      "ew": 637,
      "ĠĠĠĠĠĠĠĠĠĠĠĠĠĠĠĠĠĠ": 638,
      "ces": 639,
      "ord": 640,
      "Ġsim": 641,
      "Ġspecif": 642,
      "Ġtool": 643,
      "Ġbased": 644,
      "fa": 645,
      "ĠĠĠĠĠĠĠĠĠĠĠ": 646,
      "fig": 647,
      "log": 648,
      "--------------------------------": 649,
      "pro": 650,
      "tim": 651,
      "device": 652,
      "ance": 653,
      "De": 654,
      "ram": 655,
      "ug": 656,
      "Ġ4": 657,
      "Ġex": 658,
      "ator": 659,
      "ingle": 660,
      "Ġmubi": 661,
      "Ġi": 662,
      "Ġkey": 663,
      "Ġsh": 664,
      "ipheral": 665,
      "ax": 666,
      "inmux": 667,
      "Ġinterface": 668,
      "Alerts": 669,
      "22": 670,
      "ff": 671,
      "ĠDe": 672,
      "plement": 673,
      "src": 674,
      "ycles": 675,
      "Ġdif": 676,
      "ify": 677,
      "ies": 678,
      "Ġse": 679,
      "kew": 680,
      "Ġop": 681,
      "Ġ'": 682,
      "ĠU": 683,
      "Ġgener": 684,
      "ates": 685,
      "rr": 686,
      "ĠWidth": 687,
      "Ġinst": 688,
      "](../../": 689,
      "Titan": 690,
      "ĠVer": 691,
      "LK": 692,
      "pio": 693,
      "sp": 694,
      "penTitan": 695,
      "Ġpwrmgr": 696,
      "ary": 697,
      "epth": 698,
      "TH": 699,
      "Ġimplement": 700,
      "NumAlerts": 701,
      "Ġk": 702,
      "ASS": 703,
      "ID": 704,
      "wo": 705,
      "Ġtop": 706,
      "entitan": 707,
      "uffer": 708,
      "On": 709,
      "Ġch": 710,
      "ĠInterfaces": 711,
      "rror": 712,
      "ST": 713,
      "uto": 714,
      "Ġso": 715,
      "Ġdevice": 716,
      "ben": 717,
      "Ġinit": 718,
      "bench": 719,
      "ĠĠĠĠĠĠĠĠĠĠĠĠĠĠĠĠĠĠĠ": 720,
      "Ġdiffer": 721,
      "):": 722,
      "opentitan": 723,
      "Error": 724,
      "Ġrstmgr": 725,
      "ĠAlert": 726,
      "Ġtestbench": 727,
      "READ": 728,
      "rv": 729,
      "ulation": 730,
      "01": 731,
      "Ad": 732,
      "ay": 733,
      "ual": 734,
      "ine": 735,
      "ĠĠĠĠĠĠĠĠĠĠĠĠĠĠĠ": 736,
      "ame": 737,
      "];": 738,
      "Ġbuffer": 739,
      "ropy": 740,
      "Ġregister": 741,
      "UL": 742,
      "ĠQ": 743,
      "edn": 744,
      "gram": 745,
      "rans": 746,
      "README": 747,
      "Ġhas": 748,
      "Ġdifferent": 749,
      "vm": 750,
      "orm": 751,
      "Ġfunctionality": 752,
      "EN": 753,
      "velopment": 754,
      "Type": 755,
      "ther": 756,
      "ave": 757,
      "Ġle": 758,
      "Ġ39": 759,
      "Ġenable": 760,
      "Ġcontrol": 761,
      "Ġac": 762,
      "esc": 763,
      "Ġperipheral": 764,
      "rite": 765,
      "16": 766,
      "ft": 767,
      "Ġor": 768,
      "Ġrun": 769,
      "error": 770,
      "addr": 771,
      "omain": 772,
      "ĠHW": 773,
      "uch": 774,
      "Ġ64": 775,
      "Ġmult": 776,
      "ĠVerify": 777,
      "Addr": 778,
      "ron": 779,
      "ĠOpenTitan": 780,
      "Ġassert": 781,
      "Ġ{": 782,
      "Ġtrans": 783,
      "ill": 784,
      "Ġ22": 785,
      "Ġfol": 786,
      "errup": 787,
      "IDTH": 788,
      "errupt": 789,
      "PV": 790,
      "ast": 791,
      "pd": 792,
      "uide": 793,
      "Ġv": 794,
      "ical": 795,
      "Ġ->": 796,
      "Ġadd": 797,
      "Ġ--": 798,
      "edge": 799,
      "Ġfollow": 800,
      "egr": 801,
      "count": 802,
      "vel": 803,
      "ower": 804,
      "PI": 805,
      "Ġval": 806,
      "Ġconfig": 807,
      "andler": 808,
      "ell": 809,
      "28": 810,
      "main": 811,
      "te": 812,
      "Ġver": 813,
      "syncOn": 814,
      "csr": 815,
      "Ġtim": 816,
      "Ġonly": 817,
      "view": 818,
      "55": 819,
      "63": 820,
      "tion": 821,
      "Ġspi": 822,
      "En": 823,
      "ĠNumber": 824,
      "76": 825,
      "ok": 826,
      "stem": 827,
      "Ġsignals": 828,
      "`](": 829,
      "ust": 830,
      "ures": 831,
      "Ġ8": 832,
      "ĠRe": 833,
      "ĠBus": 834,
      "38": 835,
      "Reg": 836,
      "Ġinto": 837,
      "ĠRes": 838,
      "fault": 839,
      "MP": 840,
      "def": 841,
      "Ġmem": 842,
      "verview": 843,
      "here": 844,
      "macros": 845,
      "Ġrequest": 846,
      "cess": 847,
      "eat": 848,
      "handler": 849,
      "ng": 850,
      "Ġreq": 851,
      "svh": 852,
      "Ġactive": 853,
      "ERT": 854,
      "ak": 855,
      "ll": 856,
      "report": 857,
      "ĠĠĠĠĠĠĠĠĠĠĠĠĠĠĠĠĠĠĠĠ": 858,
      "](../../../../": 859,
      "AT": 860,
      "TR": 861,
      "WIDTH": 862,
      "pon": 863,
      "tag": 864,
      "Ġpinmux": 865,
      "Ġscan": 866,
      "Ġclkmgr": 867,
      "ĠSt": 868,
      "Ġhardware": 869,
      "ftware": 870,
      "ia": 871,
      "Ġ@": 872,
      "Ġtwo": 873,
      "rent": 874,
      "plan": 875,
      "ress": 876,
      "TL": 877,
      "jtag": 878,
      "}}": 879,
      "ifo": 880,
      "anti": 881,
      "Ġ72": 882,
      "Ġinterfaces": 883,
      "Ġerrors": 884,
      "99": 885,
      "ended": 886,
      "Ġinstanti": 887,
      "rx": 888,
      "ĠCLK": 889,
      "!--": 890,
      "56": 891,
      "IS": 892,
      "LE": 893,
      "encoded": 894,
      "Ġblock": 895,
      "<!--": 896,
      "cfg": 897,
      "red": 898,
      "ence": 899,
      "Ġwe": 900,
      "chron": 901,
      "pecification": 902,
      "AM": 903,
      "uld": 904,
      "Ġmask": 905,
      "ĠSec": 906,
      "ĠRV": 907,
      "Ġstate": 908,
      "iagram": 909,
      "-|": 910,
      "IF": 911,
      "go": 912,
      "ir": 913,
      "itions": 914,
      "Ġcore": 915,
      "ibut": 916,
      "Ġchecklist": 917,
      "(\"": 918,
      "lat": 919,
      "ink": 920,
      "ĠCon": 921,
      "Ġcomm": 922,
      "pos": 923,
      "ever": 924,
      "ree": 925,
      "Ġdo": 926,
      "entropy": 927,
      "Ġsyn": 928,
      "Ġfollowing": 929,
      "get": 930,
      "sm": 931,
      "Ġdomain": 932,
      "SR": 933,
      "host": 934,
      "son": 935,
      "col": 936,
      "ĠSV": 937,
      "ĠDes": 938,
      "00000000": 939,
      "point": 940,
      "testplan": 941,
      "Ġdifferential": 942,
      "21": 943,
      "End": 944,
      "Val": 945,
      "[`": 946,
      "bg": 947,
      "bug": 948,
      "nst": 949,
      "atus": 950,
      "ech": 951,
      "ĠDV": 952,
      "Ġdet": 953,
      "ĠOverview": 954,
      "hecklist": 955,
      "timer": 956,
      "'t": 957,
      "Data": 958,
      "][": 959,
      "eed": 960,
      "Ġrefer": 961,
      "Ġbelow": 962,
      "ĠTo": 963,
      "ĠOT": 964,
      "plic": 965,
      "tribut": 966,
      "Ġsimulation": 967,
      "project": 968,
      "ES": 969,
      "json": 970,
      "ould": 971,
      "Ġpack": 972,
      "ich": 973,
      "Ġwill": 974,
      "Ġone": 975,
      "tbn": 976,
      "\")": 977,
      "20": 978,
      "71": 979,
      "Ġencoded": 980,
      "upport": 981,
      "eatures": 982,
      "dm": 983,
      "slow": 984,
      "Ġdep": 985,
      "tocol": 986,
      "CC": 987,
      "FPV": 988,
      "Ġinterrupt": 989,
      "ĠReset": 990,
      "Endpoint": 991,
      "fsr": 992,
      "Ġgen": 993,
      "Ġauto": 994,
      "arget": 995,
      "Ġotbn": 996,
      "Ġman": 997,
      "Ġhave": 998,
      "sel": 999,
      "vern": 1000,
      "ection": 1001,
      "egrity": 1002,
      "AsyncOn": 1003,
      "OR": 1004,
      "do": 1005,
      "yndrome": 1006,
      "Ġcell": 1007,
      "isable": 1008,
      "Ġuse": 1009,
      "Ġwhich": 1010,
      "ASSERT": 1011,
      "govern": 1012,
      "DR": 1013,
      "hjson": 1014,
      "sh": 1015,
      "tool": 1016,
      "EndpointType": 1017,
      "03": 1018,
      "state": 1019,
      "adow": 1020,
      "ility": 1021,
      "Ġcount": 1022,
      "vior": 1023,
      "ADR": 1024,
      "ĠWE": 1025,
      "havior": 1026,
      "generated": 1027,
      "TA": 1028,
      "ping": 1029,
      "trol": 1030,
      "Ġmo": 1031,
      "Ġcycles": 1032,
      "ition": 1033,
      "Ġfi": 1034,
      "FFF": 1035,
      "peration": 1036,
      "Ġvalue": 1037,
      "Ġmemory": 1038,
      "Depth": 1039,
      "clog": 1040,
      "sc": 1041,
      "Ġedn": 1042,
      "Ġtb": 1043,
      "Ġtr": 1044,
      "als": 1045,
      "igh": 1046,
      "ĠReg": 1047,
      "Ġstage": 1048,
      "Ġits": 1049,
      "Ġguide": 1050,
      "====": 1051,
      "Device": 1052,
      "MA": 1053,
      "UM": 1054,
      "form": 1055,
      "und": 1056,
      "Ġread": 1057,
      "ĠRead": 1058,
      "ail": 1059,
      "ied": 1060,
      "iver": 1061,
      "Ġ==": 1062,
      "Ġflop": 1063,
      "ĠĠĠĠĠĠĠĠĠĠĠĠĠĠĠĠĠĠĠĠĠĠĠ": 1064,
      "Ġwr": 1065,
      "Ġform": 1066,
      "Ġdef": 1067,
      "comb": 1068,
      "33": 1069,
      "RV": 1070,
      "Ġmode": 1071,
      "Ġutil": 1072,
      "ĠĠĠĠĠĠĠĠĠĠĠĠĠĠĠĠĠĠĠĠĠ": 1073,
      "ulse": 1074,
      "ĠIt": 1075,
      "ĠWrite": 1076,
      "Ġwhen": 1077,
      "pg": 1078,
      "pwr": 1079,
      "ones": 1080,
      "Ġsec": 1081,
      "Ġsuch": 1082,
      "Ġthem": 1083,
      "ification": 1084,
      "portable": 1085,
      "------------": 1086,
      "Ġcode": 1087,
      "ender": 1088,
      "urrent": 1089,
      "Ġprotocol": 1090,
      "Ġinitial": 1091,
      "DW": 1092,
      "RAM": 1093,
      "dc": 1094,
      "logic": 1095,
      "encode": 1096,
      "Ġcio": 1097,
      "Ġwhere": 1098,
      "reggen": 1099,
      "Ġ^((": 1100,
      "Ġsoftware": 1101,
      "Ġtransitions": 1102,
      "governance": 1103,
      "Otp": 1104,
      "VM": 1105,
      "ss": 1106,
      "Ġbo": 1107,
      "Ġfeatures": 1108,
      "ĠSRAM": 1109,
      "ĠRnd": 1110,
      "Ġhw": 1111,
      "apper": 1112,
      "}},": 1113,
      "AA": 1114,
      "GEN": 1115,
      "Max": 1116,
      "bx": 1117,
      "Ġdu": 1118,
      "Ġping": 1119,
      "arl": 1120,
      "ank": 1121,
      "Ġinter": 1122,
      "Ġ16": 1123,
      "ĠSpecification": 1124,
      "ĠOut": 1125,
      "own": 1126,
      "Ġkeymgr": 1127,
      "Ġshould": 1128,
      "Ke": 1129,
      "Mask": 1130,
      "OM": 1131,
      "Size": 1132,
      "we": 1133,
      "ined": 1134,
      "all": 1135,
      "Ġ./": 1136,
      "Ġparameters": 1137,
      "ach": 1138,
      "ĠIf": 1139,
      "ability": 1140,
      "ceiver": 1141,
      "pli": 1142,
      "Ġ@(": 1143,
      "chroniz": 1144,
      "Bi": 1145,
      "Det": 1146,
      "Re": 1147,
      "Single": 1148,
      "])": 1149,
      "ee": 1150,
      "ger": 1151,
      "pass": 1152,
      "rd": 1153,
      "su": 1154,
      "sys": 1155,
      "uBi": 1156,
      "Ġq": 1157,
      "ents": 1158,
      "regtool": 1159,
      "Ġhand": 1160,
      "Ġhigh": 1161,
      "emp": 1162,
      "uration": 1163,
      "ErrorDet": 1164,
      "countones": 1165,
      "IFO": 1166,
      "SingleErrorDet": 1167,
      "EG": 1168,
      "mem": 1169,
      "hes": 1170,
      "arity": 1171,
      "](../": 1172,
      "Ġtests": 1173,
      "Ġ-->": 1174,
      "adowed": 1175,
      "Cnst": 1176,
      "St": 1177,
      "act": 1178,
      "otp": 1179,
      "Ġentropy": 1180,
      "Ġinclude": 1181,
      "Ġsupport": 1182,
      "escal": 1183,
      "ĠĠĠĠĠĠĠĠĠĠĠĠĠĠĠĠĠĠĠĠĠĠĠĠĠĠĠĠ": 1184,
      "ull": 1185,
      "ĠTest": 1186,
      "NumReg": 1187,
      "else": 1188,
      "ĠBEG": 1189,
      "Ġgpio": 1190,
      "Ġtime": 1191,
      "ISC": 1192,
      "echn": 1193,
      "TAG": 1194,
      "ĠBEGIN": 1195,
      "12": 1196,
      "DGEN": 1197,
      "MDGEN": 1198,
      "fsm": 1199,
      "line": 1200,
      "so": 1201,
      "start": 1202,
      "ĠĠĠĠĠĠĠĠĠĠĠĠĠĠĠĠĠ": 1203,
      "Ġmust": 1204,
      "ĠSo": 1205,
      "umber": 1206,
      "ĠCMDGEN": 1207,
      "Ġstart": 1208,
      "irect": 1209,
      "bits": 1210,
      "posedge": 1211,
      "Com": 1212,
      "NUM": 1213,
      "ning": 1214,
      "racl": 1215,
      "use": 1216,
      "Ġve": 1217,
      "Ġvalid": 1218,
      "rey": 1219,
      "Ġsame": 1220,
      "Ġuvm": 1221,
      "Ġcover": 1222,
      "Ġnumber": 1223,
      "ĠDevice": 1224,
      "24": 1225,
      "Cycles": 1226,
      "SB": 1227,
      "Ġ/": 1228,
      "Ġid": 1229,
      "Ġskew": 1230,
      "igger": 1231,
      "ĠIO": 1232,
      "ĠPrim": 1233,
      "stru": 1234,
      "Ġactual": 1235,
      "ugh": 1236,
      "Key": 1237,
      "15": 1238,
      "Per": 1239,
      "],": 1240,
      "ĠDepth": 1241,
      "ild": 1242,
      "Ġcontain": 1243,
      "'(": 1244,
      "Bus": 1245,
      "IO": 1246,
      "OT": 1247,
      "lect": 1248,
      "Ġfile": 1249,
      "ĠPMP": 1250,
      "Ġcons": 1251,
      "Ġsys": 1252,
      "ĠMem": 1253,
      "Ġusb": 1254,
      "Ġregisters": 1255,
      "dbg": 1256,
      "ous": 1257,
      "Ġelse": 1258,
      "ins": 1259,
      "Ġdm": 1260,
      "Ġdone": 1261,
      "Ġbehavior": 1262,
      "olic": 1263,
      "ote": 1264,
      "urce": 1265,
      "ĠFIFO": 1266,
      "crip": 1267,
      "////////////////////////////////": 1268,
      "pliance": 1269,
      "SingleErrorDetect": 1270,
      "'s": 1271,
      "57": 1272,
      "Buf": 1273,
      "done": 1274,
      "none": 1275,
      "sing": 1276,
      "sha": 1277,
      "Ġack": 1278,
      "Ġpad": 1279,
      "ĠĠĠĠĠĠĠĠĠĠĠĠĠĠĠĠĠĠĠĠĠĠĠĠĠ": 1280,
      "ecc": 1281,
      "ĠHardware": 1282,
      "isters": 1283,
      "ĠAlertAsyncOn": 1284,
      "Ġaddress": 1285,
      "tributing": 1286,
      "Ġguideline": 1287,
      "ĠRndCnst": 1288,
      "Ġincludes": 1289,
      "68": 1290,
      "BN": 1291,
      "Int": 1292,
      "specif": 1293,
      "Ġcl": 1294,
      "Ġsp": 1295,
      "Ġslow": 1296,
      "acro": 1297,
      "Ġdesign": 1298,
      "contributing": 1299,
      "Ġimplementation": 1300,
      "Ġcommand": 1301,
      "Ġsynchroniz": 1302,
      "echnical": 1303,
      "DV": 1304,
      "IC": 1305,
      "mp": 1306,
      "ms": 1307,
      "ndef": 1308,
      "set": 1309,
      "ystem": 1310,
      "Ġx": 1311,
      "Ġsha": 1312,
      "Ġ(.": 1313,
      "ifndef": 1314,
      "ĠROM": 1315,
      "ired": 1316,
      "axim": 1317,
      "kewCycles": 1318,
      "Ġverification": 1319,
      "specific": 1320,
      "All": 1321,
      "clock": 1322,
      "gpio": 1323,
      "pwrmgr": 1324,
      "|:": 1325,
      "read": 1326,
      "Ġover": 1327,
      "Ġwidth": 1328,
      "ĠData": 1329,
      "Ġ28": 1330,
      "comm": 1331,
      "Ġadc": 1332,
      "Ġimplements": 1333,
      "Comportable": 1334,
      "Ġcoverage": 1335,
      "CO": 1336,
      "Dw": 1337,
      "fi": 1338,
      "mask": 1339,
      "Ġar": 1340,
      "Ġpa": 1341,
      "Ġpat": 1342,
      "Ġsub": 1343,
      "Ġbus": 1344,
      "amb": 1345,
      "ases": 1346,
      "ĠĠĠĠĠĠĠĠĠĠĠĠĠĠĠĠĠĠĠĠĠĠ": 1347,
      "Ġrom": 1348,
      "Ġword": 1349,
      "portability": 1350,
      "Ġno": 1351,
      "Ġstr": 1352,
      "Ġ#(.": 1353,
      "ypes": 1354,
      "lerated": 1355,
      "cramb": 1356,
      "utils": 1357,
      "Ġtools": 1358,
      "Ġdefined": 1359,
      "olicy": 1360,
      "grey": 1361,
      "ml": 1362,
      "yte": 1363,
      "ĠX": 1364,
      "ating": 1365,
      "Ġcycle": 1366,
      "Ġdv": 1367,
      "rough": 1368,
      "Ġintr": 1369,
      "Ġtolerated": 1370,
      "Ġupd": 1371,
      "ĠTechnical": 1372,
      "ĠDW": 1373,
      "ilter": 1374,
      "Ġbits": 1375,
      "Ġstatus": 1376,
      "ĠHost": 1377,
      "Ġkmac": 1378,
      "Ġlevel": 1379,
      "ĠControl": 1380,
      "arlgrey": 1381,
      "no": 1382,
      "env": 1383,
      "seed": 1384,
      "book": 1385,
      "reports": 1386,
      "Ġformal": 1387,
      "ake": 1388,
      "fifo": 1389,
      "kup": 1390,
      "pad": 1391,
      "eng": 1392,
      "itive": 1393,
      "Ġdyn": 1394,
      "Ġdec": 1395,
      "ext": 1396,
      "intr": 1397,
      "Ġspecified": 1398,
      "rxtx": 1399,
      "Ġpackages": 1400,
      "Ġcells": 1401,
      "aximum": 1402,
      "Ġdynam": 1403,
      "))": 1404,
      "));": 1405,
      "DE": 1406,
      "Link": 1407,
      "SkewCycles": 1408,
      "check": 1409,
      "hy": 1410,
      "Ġreceiver": 1411,
      "Ġmain": 1412,
      "ĠChecklist": 1413,
      "html": 1414,
      "Ġcompliance": 1415,
      "comportability": 1416,
      "Ġprovi": 1417,
      "pok": 1418,
      "ileLink": 1419,
      "ĠAlertSkewCycles": 1420,
      "Ġinstantiates": 1421,
      "struction": 1422,
      "ready": 1423,
      "Ġdynamic": 1424,
      "++": 1425,
      "11": 1426,
      "Cnt": 1427,
      "ode": 1428,
      "ĠJ": 1429,
      "Ġpart": 1430,
      "Ġcip": 1431,
      "Ġmacro": 1432,
      "###": 1433,
      "owever": 1434,
      "Ġcontains": 1435,
      "eas": 1436,
      "development": 1437,
      "Ġup": 1438,
      "ache": 1439,
      "ĠTileLink": 1440,
      "ĠPad": 1441,
      "Ġev": 1442,
      "Ġscanmode": 1443,
      "NG": 1444,
      "aw": 1445,
      "auto": 1446,
      "ding": 1447,
      "oals": 1448,
      "uvm": 1449,
      "Ġast": 1450,
      "Ġcase": 1451,
      "Ġcases": 1452,
      "Ġspec": 1453,
      "ĠRacl": 1454,
      "ager": 1455,
      "](#": 1456,
      "ibit": 1457,
      "Ġlsu": 1458,
      "ĠClocks": 1459,
      "Ġmultibit": 1460,
      "pga": 1461,
      "AC": 1462,
      "bex": 1463,
      "cnt": 1464,
      "Ġport": 1465,
      "dev": 1466,
      "Ġsender": 1467,
      "modules": 1468,
      "ĠCom": 1469,
      "ĠPro": 1470,
      "ĠOn": 1471,
      "Ġsystem": 1472,
      "ĠGoals": 1473,
      "Ġspecifies": 1474,
      "Ġconfiguration": 1475,
      "latest": 1476,
      "cription": 1477,
      "autogen": 1478,
      "\",": 1479,
      "IP": 1480,
      "flop": 1481,
      "functional": 1482,
      "pr": 1483,
      "xx": 1484,
      "Ġ76": 1485,
      "Ġjtag": 1486,
      "stages": 1487,
      "Ġ[`": 1488,
      "Ġdisable": 1489,
      "Ġro": 1490,
      "ĠTL": 1491,
      "umm": 1492,
      "nthes": 1493,
      "ĠIntegrity": 1494,
      "Ġeach": 1495,
      "Ġsequ": 1496,
      "Ġrunning": 1497,
      "Ġcounter": 1498,
      "Id": 1499,
      "nal": 1500,
      "syndrome": 1501,
      "ution": 1502,
      "ick": 1503,
      "Ġcsr": 1504,
      "Ġcipher": 1505,
      "Ġbet": 1506,
      "Ġdes": 1507,
      "Ġdevelopment": 1508,
      "rstmgr": 1509,
      "Ġsynthes": 1510,
      "ĠBlock": 1511,
      "ization": 1512,
      "cryp": 1513,
      "AddrWidth": 1514,
      "Ġdetection": 1515,
      "Ġsimulations": 1516,
      "Ġflops": 1517,
      "ween": 1518,
      "Ġbetween": 1519,
      "07": 1520,
      "Co": 1521,
      "HW": 1522,
      "Rsp": 1523,
      "TS": 1524,
      "earlgrey": 1525,
      "je": 1526,
      "rc": 1527,
      "side": 1528,
      "ens": 1529,
      "led": 1530,
      "Ġclo": 1531,
      "Ġfunction": 1532,
      "Ġwrite": 1533,
      "Ġrepl": 1534,
      "aced": 1535,
      "Ġstages": 1536,
      "Ġuser": 1537,
      "interfaces": 1538,
      "Ġcontroller": 1539,
      "ĠSVA": 1540,
      "ĠOTP": 1541,
      "ĠPrimary": 1542,
      "|:--------------------------------": 1543,
      "02": 1544,
      "AL": 1545,
      "CE": 1546,
      "CLK": 1547,
      "ED": 1548,
      "din": 1549,
      "rsp": 1550,
      "Ġinout": 1551,
      "Ġdirect": 1552,
      "ĠCurrent": 1553,
      "ĠOther": 1554,
      "Ġany": 1555,
      "Ġchip": 1556,
      "ĠDescription": 1557,
      "pe": 1558,
      "wards": 1559,
      "Ġ3": 1560,
      "ere": 1561,
      "Ġpower": 1562,
      "Ġsw": 1563,
      "ample": 1564,
      "Ġrecomm": 1565,
      "ĠRISC": 1566,
      "urity": 1567,
      "eld": 1568,
      "wrapper": 1569,
      "fore": 1570,
      "TRL": 1571,
      "shadowed": 1572,
      "passing": 1573,
      "Ġspecial": 1574,
      "36": 1575,
      "SM": 1576,
      "UVM": 1577,
      "ause": 1578,
      "ferr": 1579,
      "Ġ#": 1580,
      "Ġvi": 1581,
      "input": 1582,
      "eriv": 1583,
      "Ġser": 1584,
      "ctor": 1585,
      "ĠSingle": 1586,
      "assign": 1587,
      "Ġthrough": 1588,
      "ĠOperation": 1589,
      "ibr": 1590,
      "sram": 1591,
      "Ġrespon": 1592,
      "ĠTheory": 1593,
      "ĠIntended": 1594,
      "ATE": 1595,
      "Value": 1596,
      "Referr": 1597,
      "Ġreplaced": 1598,
      "Referring": 1599,
      "Des": 1600,
      "Sec": 1601,
      "cm": 1602,
      "ored": 1603,
      "sw": 1604,
      "Ġ7": 1605,
      "Ġ;": 1606,
      "lear": 1607,
      "lease": 1608,
      "Ġintg": 1609,
      "ĠSystem": 1610,
      "Ġhost": 1611,
      "ĠAES": 1612,
      "sva": 1613,
      "Ġaddr": 1614,
      "Ġrequired": 1615,
      "Default": 1616,
      "PIO": 1617,
      "Enable": 1618,
      "ĠDesign": 1619,
      "ĠOutput": 1620,
      "Masking": 1621,
      "Ġsysrst": 1622,
      "Ġsynthesis": 1623,
      "Design": 1624,
      "for": 1625,
      "var": 1626,
      "Ġ+": 1627,
      "Ġio": 1628,
      "Ġescal": 1629,
      "ero": 1630,
      "Ġcal": 1631,
      "async": 1632,
      "ane": 1633,
      "Ġdon": 1634,
      "Ġtowards": 1635,
      "ĠDiagram": 1636,
      "chk": 1637,
      "Ġconst": 1638,
      "andom": 1639,
      "ĠHowever": 1640,
      "Ġregion": 1641,
      "ĠNote": 1642,
      "ĠDevelop": 1643,
      "Ġgenerated": 1644,
      "Ġassertions": 1645,
      "Ġdoes": 1646,
      "Ġtrigger": 1647,
      "Ġclosing": 1648,
      "Ġrecommended": 1649,
      "EL": 1650,
      "File": 1651,
      "byp": 1652,
      "cmd": 1653,
      "type": 1654,
      "uild": 1655,
      "âĶ": 1656,
      "Ġ?": 1657,
      "ĠK": 1658,
      "Ġpo": 1659,
      "level": 1660,
      "ĠSPI": 1661,
      "ĠCh": 1662,
      "clkmgr": 1663,
      "Ġusing": 1664,
      "Ġitem": 1665,
      "Ġchecks": 1666,
      "Init": 1667,
      "Ġchan": 1668,
      "Ġmultip": 1669,
      "](../../../../../": 1670,
      "ĠStage": 1671,
      "eccak": 1672,
      "Ġescalation": 1673,
      "19": 1674,
      "67": 1675,
      "CTRL": 1676,
      "LIC": 1677,
      "PR": 1678,
      "Pad": 1679,
      "WE": 1680,
      "``": 1681,
      "bar": 1682,
      "di": 1683,
      "div": 1684,
      "spi": 1685,
      "tgen": 1686,
      "Ġ,": 1687,
      "---": 1688,
      "Ġinputs": 1689,
      "ict": 1690,
      "Ġdr": 1691,
      "ĠĠĠĠĠĠĠĠĠĠĠĠĠĠĠĠĠĠĠĠĠĠĠĠĠĠĠĠĠ": 1692,
      "Ġmaximum": 1693,
      "Ġdefault": 1694,
      "ĠAST": 1695,
      "ĠADR": 1696,
      "usb": 1697,
      "ĠMan": 1698,
      "Ġcomp": 1699,
      "ĠInterface": 1700,
      "ĠVLE": 1701,
      "Ġvar": 1702,
      "eeded": 1703,
      "FC": 1704,
      "It": 1705,
      "Lfsr": 1706,
      "MuBi": 1707,
      "ON": 1708,
      "PLIC": 1709,
      "Sel": 1710,
      "flash": 1711,
      "pinmux": 1712,
      "rash": 1713,
      "wm": 1714,
      "ĠĠčĊ": 1715,
      "Ġlow": 1716,
      "ess": 1717,
      "Ġrd": 1718,
      "Ġcopi": 1719,
      "ĠPR": 1720,
      "Ġnew": 1721,
      "Ġconstr": 1722,
      "Ġwithin": 1723,
      "intg": 1724,
      "box": 1725,
      "MEM": 1726,
      "Ġinterrupts": 1727,
      "MAX": 1728,
      "ously": 1729,
      "ĠJTAG": 1730,
      "erived": 1731,
      "Ġconstrain": 1732,
      "13": 1733,
      "48": 1734,
      "Byte": 1735,
      "ECC": 1736,
      "action": 1737,
      "part": 1738,
      "scan": 1739,
      "ination": 1740,
      "stage": 1741,
      "Ġav": 1742,
      "Ġaon": 1743,
      "arje": 1744,
      "ntropy": 1745,
      "Ġdebug": 1746,
      "Ġneed": 1747,
      "empl": 1748,
      "ives": 1749,
      "INT": 1750,
      "order": 1751,
      "Ġmodel": 1752,
      "ength": 1753,
      "pgaBuf": 1754,
      "Ġitems": 1755,
      "arjeel": 1756,
      "(.": 1757,
      "10": 1758,
      "78": 1759,
      "Check": 1760,
      "DC": 1761,
      "oF": 1762,
      "pt": 1763,
      "pulse": 1764,
      "sg": 1765,
      "Ġtarget": 1766,
      "Ġtempl": 1767,
      "Ġsm": 1768,
      "ight": 1769,
      "Ġwrit": 1770,
      "ĠIbex": 1771,
      "Ġnon": 1772,
      "Ġneeded": 1773,
      "biter": 1774,
      "Ġassum": 1775,
      "Ġspecification": 1776,
      "Ġleave": 1777,
      "DataWidth": 1778,
      "========": 1779,
      "Intg": 1780,
      "Ġsynchronizer": 1781,
      "Ġcalc": 1782,
      "Ġconstraint": 1783,
      "arjeeling": 1784,
      "->": 1785,
      "Hardware": 1786,
      "Out": 1787,
      "PG": 1788,
      "Two": 1789,
      "UP": 1790,
      "hen": 1791,
      "ling": 1792,
      "ox": 1793,
      "reator": 1794,
      "Ġpass": 1795,
      "Ġoperation": 1796,
      "Ġsingle": 1797,
      "Ġbefore": 1798,
      "regs": 1799,
      "Ġalso": 1800,
      "ilator": 1801,
      "Ġcoll": 1802,
      "Ġ|->": 1803,
      "Ġacc": 1804,
      "Ġaddition": 1805,
      "Ġmanager": 1806,
      "Ġvector": 1807,
      "Ġconsist": 1808,
      "Ġconstant": 1809,
      "UME": 1810,
      "lay": 1811,
      "nect": 1812,
      "ri": 1813,
      "sion": 1814,
      "uart": 1815,
      "Ġy": 1816,
      "Ġinv": 1817,
      "ret": 1818,
      "ream": 1819,
      "load": 1820,
      "debug": 1821,
      "Ġdiagram": 1822,
      "Ġtouch": 1823,
      "igest": 1824,
      "Ġwon": 1825,
      "ĠIC": 1826,
      "ĠSyndrome": 1827,
      "ĠCSR": 1828,
      "genvar": 1829,
      "ĠFSM": 1830,
      "ultane": 1831,
      "apse": 1832,
      "ĠInject": 1833,
      "ERR": 1834,
      "Ġsimultane": 1835,
      "ĠUSB": 1836,
      "ASSUME": 1837,
      "Errors": 1838,
      "Ġconfigure": 1839,
      "MaxTwo": 1840,
      "Ġsupports": 1841,
      "NumRegs": 1842,
      "Ġpair": 1843,
      "Ġprovide": 1844,
      "Ġsequence": 1845,
      "Idx": 1846,
      "cryption": 1847,
      "Ġcalculation": 1848,
      "Ġcollapse": 1849,
      "Ġsimultaneously": 1850,
      "MaxTwoErrors": 1851,
      "Aw": 1852,
      "fter": 1853,
      "mbx": 1854,
      "osc": 1855,
      "pp": 1856,
      "phy": 1857,
      "ues": 1858,
      "ork": 1859,
      "only": 1860,
      "Ġoper": 1861,
      "Ġintegrity": 1862,
      "registers": 1863,
      "endif": 1864,
      "Ġstep": 1865,
      "old": 1866,
      "trig": 1867,
      "ĠInput": 1868,
      "peri": 1869,
      "Ġaccess": 1870,
      "Ġvalues": 1871,
      "ĠOTBN": 1872,
      "Count": 1873,
      "75": 1874,
      "CD": 1875,
      "Cfg": 1876,
      "Racl": 1877,
      "Tr": 1878,
      "VEL": 1879,
      "]^": 1880,
      "down": 1881,
      "gle": 1882,
      "gith": 1883,
      "sim": 1884,
      "ting": 1885,
      "Ġ5": 1886,
      "Ġesc": 1887,
      "info": 1888,
      "Ġinfo": 1889,
      "enable": 1890,
      "ite": 1891,
      "Ġsep": 1892,
      "ĠĠĠĠĠĠĠĠĠĠĠĠĠĠĠĠĠĠĠĠĠĠĠĠĠĠĠ": 1893,
      "ross": 1894,
      "Ġuart": 1895,
      "gramm": 1896,
      "ĠPer": 1897,
      "ĠEntropy": 1898,
      "ĠFor": 1899,
      "ĠĠĠĠĠĠĠĠĠĠĠĠĠĠĠĠĠĠĠĠĠĠĠĠĠĠĠĠĠĠĠĠĠĠĠĠĠĠĠĠĠĠĠĠĠĠĠĠĠĠĠĠĠĠĠĠĠĠĠĠĠĠĠĠ": 1900,
      "ADDR": 1901,
      "crib": 1902,
      "ĠEnableRacl": 1903,
      "Ġexec": 1904,
      "9999": 1905,
      "LEVEL": 1906,
      "NumRegions": 1907,
      "cramble": 1908,
      "Ġcsrng": 1909,
      "ĠChip": 1910,
      "InitFile": 1911,
      "github": 1912,
      "Ġsepar": 1913,
      "*);": 1914,
      "25": 1915,
      "Bank": 1916,
      "FSR": 1917,
      "OP": 1918,
      "Power": 1919,
      "Sram": 1920,
      "ryp": 1921,
      "ved": 1922,
      "instr": 1923,
      "Ġph": 1924,
      "Ġpulse": 1925,
      "ally": 1926,
      "---------|": 1927,
      "Ġ128": 1928,
      "ĠCo": 1929,
      "ĠAd": 1930,
      "chor": 1931,
      "Ġresult": 1932,
      "ĠFPV": 1933,
      "Ġcomb": 1934,
      "output": 1935,
      "riscv": 1936,
      "ency": 1937,
      "time": 1938,
      "ffset": 1939,
      "Ġoptim": 1940,
      "ĠResetValue": 1941,
      "Ġboth": 1942,
      "ummary": 1943,
      "GR": 1944,
      "HA": 1945,
      "IZ": 1946,
      "Im": 1947,
      "MGR": 1948,
      "PMP": 1949,
      "Seed": 1950,
      "darjeeling": 1951,
      "not": 1952,
      "nel": 1953,
      "sPer": 1954,
      "init": 1955,
      "Ġfilter": 1956,
      "ans": 1957,
      "Ġderived": 1958,
      "Ġmbx": 1959,
      "Ġbeen": 1960,
      "arden": 1961,
      "ĠED": 1962,
      "ĠMuBi": 1963,
      "Ġprocess": 1964,
      "keymgr": 1965,
      "Ġcontent": 1966,
      "`**,": 1967,
      "ĠHWIP": 1968,
      "5555": 1969,
      "ails": 1970,
      "++)": 1971,
      "366": 1972,
      "Ġvia": 1973,
      "ĠPeripheral": 1974,
      "Impl": 1975,
      "27": 1976,
      "TB": 1977,
      "dpe": 1978,
      "ggle": 1979,
      "mm": 1980,
      "win": 1981,
      "Ġ),": 1982,
      "erase": 1983,
      "Ġinform": 1984,
      "Ġag": 1985,
      "icon": 1986,
      "Ġother": 1987,
      "Ġsoc": 1988,
      "Ġfree": 1989,
      "idle": 1990,
      "adc": 1991,
      "ilicon": 1992,
      "ĠAsyncOn": 1993,
      "ible": 1994,
      "ASH": 1995,
      "Info": 1996,
      "fail": 1997,
      "Ġselect": 1998,
      "Ġgeneric": 1999,
      "](../../../": 2000,
      "ically": 2001,
      "Ġfirst": 2002,
      "Ġveer": 2003,
      "ĠController": 2004,
      "INTERR": 2005,
      "PGA": 2006,
      "IZE": 2007,
      "Target": 2008,
      "block": 2009,
      "da": 2010,
      "hot": 2011,
      "pres": 2012,
      "verr": 2013,
      "Ġorder": 2014,
      "Ġinstruction": 2015,
      "Ġtype": 2016,
      "Ġclear": 2017,
      "arbiter": 2018,
      "Ġside": 2019,
      "Ġsram": 2020,
      "etch": 2021,
      "Ġdout": 2022,
      "Ġmeas": 2023,
      "ĠSummary": 2024,
      "Ġallow": 2025,
      "Ġthere": 2026,
      "Ġascon": 2027,
      "ĠAW": 2028,
      "ĠAON": 2029,
      "reset": 2030,
      "ĠMode": 2031,
      "ĠVMEM": 2032,
      "Ġresets": 2033,
      "ĠGuide": 2034,
      "logy": 2035,
      "Ġsource": 2036,
      "Ġassertion": 2037,
      "Ġsecurity": 2038,
      "Ġinternal": 2039,
      "BusAddr": 2040,
      "shake": 2041,
      "Ġxbar": 2042,
      "Ġupdated": 2043,
      "ensor": 2044,
      "Ġtemplate": 2045,
      "oxImpl": 2046,
      "Ġseparate": 2047,
      "INTERRUP": 2048,
      "08": 2049,
      "Bit": 2050,
      "BTB": 2051,
      "If": 2052,
      "Ro": 2053,
      "Str": 2054,
      "dif": 2055,
      "pect": 2056,
      "types": 2057,
      "Ġic": 2058,
      "lob": 2059,
      "Ġplease": 2060,
      "atch": 2061,
      "ctl": 2062,
      "Ġdin": 2063,
      "ife": 2064,
      "ift": 2065,
      "ularity": 2066,
      "ace": 2067,
      "Ġmake": 2068,
      "ĠId": 2069,
      "Ġcomple": 2070,
      "ĠUVM": 2071,
      "ErrorRsp": 2072,
      "Ġasserted": 2073,
      "Ġwords": 2074,
      "Ġstring": 2075,
      "Ġround": 2076,
      "Ġdescrib": 2077,
      "Ġresponse": 2078,
      "Ġadditional": 2079,
      "INTERRUPTS": 2080,
      ".](../": 2081,
      "LO": 2082,
      "OU": 2083,
      "PM": 2084,
      "av": 2085,
      "ner": 2086,
      "oot": 2087,
      "sb": 2088,
      "soc": 2089,
      "ince": 2090,
      "Ġpre": 2091,
      "Ġcfg": 2092,
      "Ġfifo": 2093,
      "ĠĠĠĠĠĠĠĠĠĠĠĠĠĠĠĠĠĠĠĠĠĠĠĠĠĠ": 2094,
      "Ġrsp": 2095,
      "ifdef": 2096,
      "Ġprimitive": 2097,
      "0003": 2098,
      "Ġmay": 2099,
      "ĠAl": 2100,
      "ĠPins": 2101,
      "Ġens": 2102,
      "Ġbyte": 2103,
      "Ġ\"\",": 2104,
      "ized": 2105,
      "Ġclocks": 2106,
      "ĠName": 2107,
      "Ġchecking": 2108,
      "config": 2109,
      "Ġsee": 2110,
      "Ġmore": 2111,
      "ĠRegisters": 2112,
      "--------------": 2113,
      "-------------|": 2114,
      "Ġhandshake": 2115,
      "Ġidx": 2116,
      "ĠMemInitFile": 2117,
      "SingleErrorDetectR": 2118,
      "Ġclass": 2119,
      "ĠRaclErrorRsp": 2120,
      "|:----------------------------------------------------------------": 2121,
      "scanmode": 2122,
      "pgaBufG": 2123,
      "rypto": 2124,
      "23": 2125,
      "FE": 2126,
      "ns": 2127,
      "policy": 2128,
      "word": 2129,
      "ĢâĶ": 2130,
      "ers": 2131,
      "Ġinject": 2132,
      "Ġpwr": 2133,
      "Ġcnt": 2134,
      "hether": 2135,
      "ĠĠĠĠĠĠĠĠĠĠĠĠĠĠĠĠĠĠĠĠĠĠĠĠ": 2136,
      "Ġremo": 2137,
      "Ġredu": 2138,
      "coding": 2139,
      "---------": 2140,
      "Ġmux": 2141,
      "grap": 2142,
      "Ġ*/": 2143,
      "Ġstand": 2144,
      "Ġuses": 2145,
      "ĠLFSR": 2146,
      "ranularity": 2147,
      "ĠNumC": 2148,
      "Development": 2149,
      "escalate": 2150,
      "ĠSource": 2151,
      "Ġ(.*);": 2152,
      "Ġmultiple": 2153,
      "Ġinformation": 2154,
      "BusAddrW": 2155,
      "04": 2156,
      "LASH": 2157,
      "bn": 2158,
      "bus": 2159,
      "ld": 2160,
      "pend": 2161,
      "size": 2162,
      "skew": 2163,
      "sender": 2164,
      "the": 2165,
      "yle": 2166,
      "ze": 2167,
      "Ġins": 2168,
      "Ġtemp": 2169,
      "-->": 2170,
      "ances": 2171,
      "round": 2172,
      "Ġwell": 2173,
      "003": 2174,
      "ipe": 2175,
      "Ġneg": 2176,
      "ither": 2177,
      "iod": 2178,
      "write": 2179,
      "arts": 2180,
      "apt": 2181,
      "FFFFF": 2182,
      "ĠLength": 2183,
      "Ġvc": 2184,
      "Ġinitialize": 2185,
      "Ġpattgen": 2186,
      "ĠManual": 2187,
      "ĠEDN": 2188,
      ".[`": 2189,
      "256": 2190,
      "Granularity": 2191,
      "ND": 2192,
      "OpenTitan": 2193,
      "Policy": 2194,
      "SIZE": 2195,
      "].": 2196,
      "aes": 2197,
      "disable": 2198,
      "ty": 2199,
      "vbits": 2200,
      "wkup": 2201,
      "ines": 2202,
      "reak": 2203,
      "Ġafter": 2204,
      "Ġperf": 2205,
      "atal": 2206,
      "attr": 2207,
      "icated": 2208,
      "Ġcor": 2209,
      "ime": 2210,
      "Ġsize": 2211,
      "Ġbuild": 2212,
      "Ġfl": 2213,
      "Ġwhether": 2214,
      "ĠTop": 2215,
      "ipel": 2216,
      "ĠPart": 2217,
      "ĠOffset": 2218,
      "Ġstored": 2219,
      "cept": 2220,
      "resh": 2221,
      "000000": 2222,
      "ĠFPGA": 2223,
      "coming": 2224,
      "ĠNoF": 2225,
      "ĠInit": 2226,
      "bitr": 2227,
      "ranch": 2228,
      "Ġatt": 2229,
      "Ġshadowed": 2230,
      "Ġgenerate": 2231,
      "Ġenabled": 2232,
      "Ġboot": 2233,
      "Ġidle": 2234,
      "Ġdma": 2235,
      "////////////////////////////////////////": 2236,
      "Ġclr": 2237,
      "masked": 2238,
      "Ġarbitr": 2239,
      "Ġprovides": 2240,
      "---------|---------": 2241,
      "Ġagain": 2242,
      "verride": 2243,
      "---------|---------:": 2244,
      "41": 2245,
      "Div": 2246,
      "Domain": 2247,
      "IM": 2248,
      "RISC": 2249,
      "RCE": 2250,
      "Specification": 2251,
      "SOU": 2252,
      "TE": 2253,
      "]),": 2254,
      "`.": 2255,
      "be": 2256,
      "cause": 2257,
      "kmac": 2258,
      "oe": 2259,
      "ose": 2260,
      "pre": 2261,
      "ry": 2262,
      "Ġback": 2263,
      "Ġ(!": 2264,
      "Ġintegr": 2265,
      "Ġwork": 2266,
      "Ġ12": 2267,
      "ĠSW": 2268,
      "ĠCrash": 2269,
      "Ġhash": 2270,
      "olution": 2271,
      "indow": 2272,
      "ious": 2273,
      "otbn": 2274,
      "00000": 2275,
      "Ġcomment": 2276,
      "ĠInterrupt": 2277,
      "Ġprogram": 2278,
      "ĠInfo": 2279,
      "control": 2280,
      "Ġexample": 2281,
      "ffect": 2282,
      "Ġchild": 2283,
      "Ġrequests": 2284,
      "Ġsync": 2285,
      "MAC": 2286,
      "33366": 2287,
      "AAAD": 2288,
      "OTE": 2289,
      "checker": 2290,
      "ĠRaclPolicy": 2291,
      "Ġseparately": 2292,
      "ĢâĶĢâĶ": 2293,
      "Domains": 2294,
      "SOURCE": 2295,
      "65": 2296,
      "Harts": 2297,
      "Res": 2298,
      "TX": 2299,
      "]&": 2300,
      "cyc": 2301,
      "lfsr": 2302,
      "oid": 2303,
      "ring": 2304,
      "vis": 2305,
      "wb": 2306,
      "zero": 2307,
      "Ġcmd": 2308,
      "Ġcurrent": 2309,
      "Ġcrypto": 2310,
      "ities": 2311,
      "Ġbut": 2312,
      "Ġoutputs": 2313,
      "ĠSY": 2314,
      "ĠSw": 2315,
      "ĠSram": 2316,
      "Ġnet": 2317,
      "NumC": 2318,
      "opies": 2319,
      "Ġlink": 2320,
      "ĠThese": 2321,
      "ĠGATE": 2322,
      "ĠGPIO": 2323,
      "fast": 2324,
      "aster": 2325,
      "Ġinstantiated": 2326,
      "tributes": 2327,
      "Ġdepend": 2328,
      "ailable": 2329,
      "pwrup": 2330,
      "fix": 2331,
      "ĠAdd": 2332,
      "Ġstandard": 2333,
      "Ġperform": 2334,
      "ĠRaclPolicySel": 2335,
      "800": 2336,
      "CK": 2337,
      "For": 2338,
      "FLASH": 2339,
      "LC": 2340,
      "LEN": 2341,
      "NOTE": 2342,
      "Un": 2343,
      "YP": 2344,
      "are": 2345,
      "break": 2346,
      "dn": 2347,
      "ead": 2348,
      "iated": 2349,
      "meas": 2350,
      "our": 2351,
      "ook": 2352,
      "pat": 2353,
      "pack": 2354,
      "pwm": 2355,
      "ĠĠĠĠčĊ": 2356,
      "inx": 2357,
      "Ġtx": 2358,
      "rect": 2359,
      "Ġap": 2360,
      "Ġabo": 2361,
      "Ġcre": 2362,
      "Ġsc": 2363,
      "Ġsrc": 2364,
      "Ġdut": 2365,
      "Ġracl": 2366,
      "Ġrandom": 2367,
      "pkt": 2368,
      "erted": 2369,
      "idx": 2370,
      "Ġmet": 2371,
      "ilinx": 2372,
      "upd": 2373,
      "ĠMH": 2374,
      "apter": 2375,
      "ĠWhen": 2376,
      "trans": 2377,
      "ĠEnSec": 2378,
      "hare": 2379,
      "ĠEnables": 2380,
      "Ġtimer": 2381,
      "chronous": 2382,
      "Ġmasking": 2383,
      "Ġreference": 2384,
      "Ġfield": 2385,
      "Ġdumm": 2386,
      "ĠSoftware": 2387,
      "Ġusbdev": 2388,
      "ĠRndCnstLfsr": 2389,
      "ĠOnce": 2390,
      "ibrary": 2391,
      "Ġpos": 2392,
      "Ġcopied": 2393,
      "Ġconstants": 2394,
      "ĠModel": 2395,
      "Ġremove": 2396,
      "apture": 2397,
      "Ġagainst": 2398,
      "80": 2399,
      "BIN": 2400,
      "Ex": 2401,
      "GPIO": 2402,
      "Rst": 2403,
      "Src": 2404,
      "US": 2405,
      "af": 2406,
      "alog": 2407,
      "ful": 2408,
      "free": 2409,
      "ield": 2410,
      "ma": 2411,
      "por": 2412,
      "Ġ~": 2413,
      "loc": 2414,
      "atile": 2415,
      "Ġsel": 2416,
      "Ġbank": 2417,
      "ascon": 2418,
      "Ġdigest": 2419,
      "Ġwindow": 2420,
      "ider": 2421,
      "ulator": 2422,
      "Ġunt": 2423,
      "Ġdelay": 2424,
      "Ġthen": 2425,
      "locks": 2426,
      "](./": 2427,
      "Ġconform": 2428,
      "Ġconnect": 2429,
      "olatile": 2430,
      "Ġlist": 2431,
      "Ġmodules": 2432,
      "Ġ'{": 2433,
      "Ġbuffered": 2434,
      "Ġenables": 2435,
      "ngBus": 2436,
      "ATA": 2437,
      "ĠConfig": 2438,
      "DataIntg": 2439,
      "SizeByte": 2440,
      "empty": 2441,
      "active": 2442,
      "irectory": 2443,
      "COV": 2444,
      "CntDw": 2445,
      "ĠProgramm": 2446,
      "Ġdirectory": 2447,
      "usbdev": 2448,
      "Ġvari": 2449,
      "Ġavailable": 2450,
      "Ġcombination": 2451,
      "Ġinjection": 2452,
      "Ġnegedge": 2453,
      "Ġattack": 2454,
      "BIND": 2455,
      "ĠProgrammer": 2456,
      "09": 2457,
      "Base": 2458,
      "BYP": 2459,
      "DO": 2460,
      "EX": 2461,
      "FG": 2462,
      "HI": 2463,
      "Note": 2464,
      "OK": 2465,
      "SE": 2466,
      "Vec": 2467,
      "WLEN": 2468,
      "Zero": 2469,
      "der": 2470,
      "dpi": 2471,
      "file": 2472,
      "off": 2473,
      "override": 2474,
      "pc": 2475,
      "ses": 2476,
      "sbox": 2477,
      "Ġent": 2478,
      "Ġedge": 2479,
      "lot": 2480,
      "Ġpc": 2481,
      "Ġpin": 2482,
      "ative": 2483,
      "ature": 2484,
      "les": 2485,
      "ark": 2486,
      "Ġful": 2487,
      "anis": 2488,
      "Ġwkup": 2489,
      "Ġmech": 2490,
      "Ġmess": 2491,
      "Ġ10": 2492,
      "ĠAct": 2493,
      "ĠADC": 2494,
      "ĠPower": 2495,
      "urn": 2496,
      "uring": 2497,
      "Ġencoding": 2498,
      "elay": 2499,
      "value": 2500,
      "Ġtesting": 2501,
      "Ġgo": 2502,
      "Ġprodu": 2503,
      "InW": 2504,
      "Inst": 2505,
      "ĠDefault": 2506,
      "STATE": 2507,
      "Ġversion": 2508,
      "Ġdetails": 2509,
      "Ġmost": 2510,
      "FFFE": 2511,
      "Ġwrapper": 2512,
      "sysrst": 2513,
      "Ġdmi": 2514,
      "Ġupdate": 2515,
      "xxxx": 2516,
      "Ġvarious": 2517,
      "Counter": 2518,
      "Ġexecution": 2519,
      "PowerDomains": 2520,
      "present": 2521,
      "Ġmeasure": 2522,
      "PMCounter": 2523,
      "SingleErrorDetectRever": 2524,
      "ĠInitial": 2525,
      "vision": 2526,
      "update": 2527,
      "Ġdummy": 2528,
      "BYPASS": 2529,
      "Ġfully": 2530,
      "Ġmechanis": 2531,
      "06": 2532,
      "34": 2533,
      "AP": 2534,
      "BI": 2535,
      "NTH": 2536,
      "Name": 2537,
      "__": 2538,
      "az": 2539,
      "base": 2540,
      "checklist": 2541,
      "cdc": 2542,
      "diagram": 2543,
      "ho": 2544,
      "hAA": 2545,
      "iate": 2546,
      "mb": 2547,
      "mi": 2548,
      "rw": 2549,
      "tck": 2550,
      "|--------------------------------": 2551,
      "Ġinside": 2552,
      "Ġtdo": 2553,
      "---|": 2554,
      "stream": 2555,
      "Ġparamet": 2556,
      "Ġpull": 2557,
      "ater": 2558,
      "icache": 2559,
      "hed": 2560,
      "Ġdbg": 2561,
      "Ġrdata": 2562,
      "nder": 2563,
      "ulp": 2564,
      "ĠID": 2565,
      "ĠIN": 2566,
      "ĠSB": 2567,
      "ĠSign": 2568,
      "ĠScan": 2569,
      "Ġbeing": 2570,
      "region": 2571,
      "ĠĠĠĠĠčĊ": 2572,
      "Ġlife": 2573,
      "urces": 2574,
      "ĠBoot": 2575,
      "aps": 2576,
      "pose": 2577,
      "Ġeither": 2578,
      "ĠLo": 2579,
      "ocumentation": 2580,
      "INCE": 2581,
      "Ġattributes": 2582,
      "Ġsetting": 2583,
      "Ġext": 2584,
      "Ġcontrols": 2585,
      "Ġtransaction": 2586,
      "`](#": 2587,
      "Regions": 2588,
      "ESIS": 2589,
      "havioral": 2590,
      "ĠRegister": 2591,
      "Ġsecure": 2592,
      "ĠOutW": 2593,
      "ĠPMPNumRegions": 2594,
      "ĠPMPGranularity": 2595,
      "ĠMemory": 2596,
      "ĠDataWidth": 2597,
      "Ġprovided": 2598,
      "Ġevent": 2599,
      "Ġevents": 2600,
      "Ġroot": 2601,
      "icked": 2602,
      "Ġconsistency": 2603,
      "ĠICache": 2604,
      "lobal": 2605,
      "ĠSYNTH": 2606,
      "ĠRaclPolicySelVec": 2607,
      "freeze": 2608,
      "ĠSYNTHESIS": 2609,
      "17": 2610,
      "50": 2611,
      "Checklist": 2612,
      "Pro": 2613,
      "Sh": 2614,
      "So": 2615,
      "UT": 2616,
      "bk": 2617,
      "bign": 2618,
      "ccess": 2619,
      "dst": 2620,
      "dff": 2621,
      "directory": 2622,
      "hase": 2623,
      "ie": 2624,
      "ology": 2625,
      "ped": 2626,
      "picked": 2627,
      "rdata": 2628,
      "rHarts": 2629,
      "ser": 2630,
      "sup": 2631,
      "wner": 2632,
      "xW": 2633,
      "xi": 2634,
      "inal": 2635,
      "invalid": 2636,
      "Ġinstr": 2637,
      "receiver": 2638,
      "Ġaxi": 2639,
      "Ġpage": 2640,
      "Ġpwm": 2641,
      "orage": 2642,
      "ĠĠĠčĊ": 2643,
      "Ġsend": 2644,
      "Ġbro": 2645,
      "ish": 2646,
      "ĠSe": 2647,
      "adapter": 2648,
      "Ġthan": 2649,
      "ĠRAM": 2650,
      "ĠAn": 2651,
      "ĠAw": 2652,
      "tlul": 2653,
      "chit": 2654,
      "Ġlibrary": 2655,
      "plit": 2656,
      "ĠEx": 2657,
      "urable": 2658,
      "urther": 2659,
      "Ġencryption": 2660,
      "ĠBe": 2661,
      "Ġ256": 2662,
      "requ": 2663,
      "Ġanchor": 2664,
      "que": 2665,
      "toggle": 2666,
      "range": 2667,
      "Ġgenerator": 2668,
      "ormal": 2669,
      "Ġblocks": 2670,
      "latch": 2671,
      "0000000000000000": 2672,
      "ĠItem": 2673,
      "Ġtimeout": 2674,
      "Ġcommands": 2675,
      "ĠDataBit": 2676,
      "PadIdx": 2677,
      "Ġcopies": 2678,
      "ĠPRINCE": 2679,
      "Ġavoid": 2680,
      "Ġoptimize": 2681,
      "sPerMask": 2682,
      "Strict": 2683,
      "Ġpwrup": 2684,
      "graph": 2685,
      "ĠNumCopies": 2686,
      "Ġcorrect": 2687,
      "Ġnetlist": 2688,
      "Unlock": 2689,
      "ĠMHPMCounter": 2690,
      "bkdr": 2691,
      "bignum": 2692,
      "ĠDataBitsPerMask": 2693,
      "As": 2694,
      "BD": 2695,
      "Delay": 2696,
      "Hz": 2697,
      "NT": 2698,
      "Raw": 2699,
      "Sync": 2700,
      "Scan": 2701,
      "Types": 2702,
      "Volatile": 2703,
      "cs": 2704,
      "gating": 2705,
      "lish": 2706,
      "par": 2707,
      "sub": 2708,
      "system": 2709,
      "tes": 2710,
      "trst": 2711,
      "tms": 2712,
      "ven": 2713,
      "ves": 2714,
      "Ġincoming": 2715,
      "Ġpins": 2716,
      "Ġpri": 2717,
      "ener": 2718,
      "Ġfetch": 2719,
      "annel": 2720,
      "ise": 2721,
      "Ġrx": 2722,
      "Ġremain": 2723,
      "coder": 2724,
      "000": 2725,
      "Ġmsg": 2726,
      "ĠShare": 2727,
      "ĠCP": 2728,
      "ĠDet": 2729,
      "Ġhow": 2730,
      "Ġharden": 2731,
      "agent": 2732,
      "seu": 2733,
      "ĠPW": 2734,
      "ĠPOR": 2735,
      "tlgen": 2736,
      "unbuf": 2737,
      "Ġlfsr": 2738,
      "------------------": 2739,
      "ome": 2740,
      "irection": 2741,
      "ĠMask": 2742,
      "ynchronous": 2743,
      "Ġcompon": 2744,
      "ĠĠĠĠĠĠĠĠĠĠĠĠĠĠĠĠĠĠĠĠĠĠĠĠĠĠĠĠĠĠĠĠĠĠĠĠĠĠĠĠĠĠĠĠĠĠĠĠ": 2745,
      "ysical": 2746,
      "Ġgre": 2747,
      "iven": 2748,
      "ĠGener": 2749,
      "Ġrvdff": 2750,
      "Ġrequire": 2751,
      "Ġspecific": 2752,
      "Ġinstance": 2753,
      "Ġimplemented": 2754,
      "Ġruns": 2755,
      "ifoDepth": 2756,
      "dmi": 2757,
      "Ġdepth": 2758,
      "Ġmany": 2759,
      "Ġmod": 2760,
      "Req": 2761,
      "ĠPrimitive": 2762,
      "ION": 2763,
      "ĠPMPEnable": 2764,
      "Ġpath": 2765,
      "ĠXilinx": 2766,
      "english": 2767,
      "Ġdisabled": 2768,
      "PRIO": 2769,
      "Ġconfigured": 2770,
      "True": 2771,
      "reshold": 2772,
      "---------|---------:|:----------------------------------------------------------------": 2773,
      "breakfast": 2774,
      "Ġconforms": 2775,
      "azel": 2776,
      "chitect": 2777,
      "UnlockEn": 2778,
      "RawUnlockEn": 2779,
      "VolatileRawUnlockEn": 2780,
      "englishbreakfast": 2781,
      "44": 2782,
      "801": 2783,
      "</": 2784,
      "AR": 2785,
      "Col": 2786,
      "HAS": 2787,
      "IT": 2788,
      "LAT": 2789,
      "PHAS": 2790,
      "Rom": 2791,
      "ays": 2792,
      "back": 2793,
      "cnst": 2794,
      "creator": 2795,
      "capture": 2796,
      "evel": 2797,
      "fcov": 2798,
      "fatal": 2799,
      "ga": 2800,
      "hA": 2801,
      "hash": 2802,
      "ier": 2803,
      "nq": 2804,
      "ou": 2805,
      "ps": 2806,
      "parameter": 2807,
      "pull": 2808,
      "rt": 2809,
      "rvalid": 2810,
      "vent": 2811,
      "Ġhe": 2812,
      "Ġign": 2813,
      "erals": 2814,
      "Ġinde": 2815,
      "Ġtick": 2816,
      "status": 2817,
      "lection": 2818,
      "Ġsig": 2819,
      "Ġsck": 2820,
      "Ġsensor": 2821,
      "Ġsplit": 2822,
      "Ġsome": 2823,
      "dump": 2824,
      "Ġfind": 2825,
      "Ġfull": 2826,
      "Ġdiv": 2827,
      "Ġdown": 2828,
      "Ġwipe": 2829,
      "Ġuni": 2830,
      "Ġme": 2831,
      "ĠThere": 2832,
      "Ġdest": 2833,
      "Ġdeter": 2834,
      "Ġthose": 2835,
      "Ġhook": 2836,
      "](/": 2837,
      "ĠPOK": 2838,
      "ĠOsc": 2839,
      "ush": 2840,
      "ociated": 2841,
      "wake": 2842,
      "ioPad": 2843,
      "fpga": 2844,
      "Ġprovision": 2845,
      "ĠĠĠĠĠĠčĊ": 2846,
      "Ġeffect": 2847,
      "RES": 2848,
      "ternal": 2849,
      "Ġassociated": 2850,
      "Ġexpect": 2851,
      "Ġdiff": 2852,
      "Ġinstead": 2853,
      "Ġbuffers": 2854,
      "Ġacross": 2855,
      "illator": 2856,
      "5556": 2857,
      "ĠResolution": 2858,
      "akes": 2859,
      "ponent": 2860,
      "999": 2861,
      "laterals": 2862,
      "Ġdifferentially": 2863,
      "\"))": 2864,
      "Std": 2865,
      "Stages": 2866,
      "ĠTestStrict": 2867,
      "ĠTestTrue": 2868,
      "Ġparent": 2869,
      "akeup": 2870,
      "ĠComponent": 2871,
      "Ġdirectly": 2872,
      "Ġneeds": 2873,
      "Ġvectors": 2874,
      "ĠCSRNG": 2875,
      "9999999": 2876,
      "ĠCore": 2877,
      "55555556": 2878,
      "Round": 2879,
      "-------------|------------------": 2880,
      "ipeline": 2881,
      "Ġarbitrary": 2882,
      "Ġabove": 2883,
      "Ġuntil": 2884,
      "Ġmessage": 2885,
      "supp": 2886,
      "ĠBehavioral": 2887,
      "graphic": 2888,
      "Ġcomponents": 2889,
      "Collaterals": 2890,
      "cnsty": 2891,
      "rtual": 2892,
      "Ġsigint": 2893,
      "Ġdeterm": 2894,
      "ĠOscillator": 2895,
      "42": 2896,
      "DATA": 2897,
      "Gen": 2898,
      "HE": 2899,
      "Hot": 2900,
      "Host": 2901,
      "See": 2902,
      "cg": 2903,
      "ds": 2904,
      "dis": 2905,
      "eHot": 2906,
      "mon": 2907,
      "now": 2908,
      "power": 2909,
      "ption": 2910,
      "sck": 2911,
      "trl": 2912,
      "uct": 2913,
      "vif": 2914,
      "Ġ%": 2915,
      "Ġinc": 2916,
      "Ġind": 2917,
      "Ġpap": 2918,
      "atic": 2919,
      "Ġlog": 2920,
      "itter": 2921,
      "Ġoverview": 2922,
      "Ġbas": 2923,
      "Ġlogical": 2924,
      "alt": 2925,
      "Ġthey": 2926,
      "Ġthese": 2927,
      "edicated": 2928,
      "Ġfast": 2929,
      "anchor": 2930,
      "Ġrs": 2931,
      "Ġran": 2932,
      "Ġrand": 2933,
      "Ġwdata": 2934,
      "acc": 2935,
      "ĠCal": 2936,
      "ĠCnt": 2937,
      "Ġissu": 2938,
      "ĠDm": 2939,
      "ĠDedicated": 2940,
      "Ġdecryption": 2941,
      "Ġalu": 2942,
      "Ġthree": 2943,
      "Ġht": 2944,
      "Ġhmac": 2945,
      "iph": 2946,
      "ĠAs": 2947,
      "tlu": 2948,
      "Ġnormal": 2949,
      "used": 2950,
      "oper": 2951,
      "ateWidth": 2952,
      "ĠECC": 2953,
      "ĠBy": 2954,
      "resp": 2955,
      "ĠMax": 2956,
      "ĠMaximum": 2957,
      "izes": 2958,
      "Ġalerts": 2959,
      "ĠĠĠĠĠĠĠĠĠĠĠĠĠĠĠĠĠĠĠĠĠĠĠĠĠĠĠĠĠĠĠĠĠĠĠ": 2960,
      "ĠWord": 2961,
      "ĠWIDTH": 2962,
      "onehot": 2963,
      "Ġequ": 2964,
      "Ġperm": 2965,
      "Ġperiod": 2966,
      "strap": 2967,
      "INTR": 2968,
      "Ġdocumentation": 2969,
      "ĠIPs": 2970,
      "Ġseed": 2971,
      "Ġselection": 2972,
      "ĠVerilator": 2973,
      "Ġsources": 2974,
      "pdf": 2975,
      "ĠStatus": 2976,
      "Ġmasked": 2977,
      "ĠSecMasking": 2978,
      "Ġcommun": 2979,
      "pwrdn": 2980,
      "Ġinitialization": 2981,
      "Ġdue": 2982,
      "SizeWidth": 2983,
      "passed": 2984,
      "SBoxImpl": 2985,
      "Keymgr": 2986,
      "OTBN": 2987,
      "Ġspid": 2988,
      "CORE": 2989,
      "first": 2990,
      "crambling": 2991,
      "ACL": 2992,
      "ALERT": 2993,
      "Ġserves": 2994,
      "ĠKeccak": 2995,
      "Ġchange": 2996,
      "Ġchannel": 2997,
      "ĠManager": 2998,
      "================": 2999,
      "Ġaccum": 3000,
      "TargetCfg": 3001,
      "Ġrounds": 3002,
      "TEST": 3003,
      "packer": 3004,
      "GPIOS": 3005,
      "ĠConfiguration": 3006,
      "EXT": 3007,
      "Ġmechanism": 3008,
      "BITS": 3009,
      "ĠSBoxImpl": 3010,
      "seudo": 3011,
      "Ġdestination": 3012,
      "Ġpaper": 3013,
      "128": 3014,
      "26": 3015,
      "73": 3016,
      "92": 3017,
      "AB": 3018,
      "EC": 3019,
      "IE": 3020,
      "Mode": 3021,
      "RST": 3022,
      "cc": 3023,
      "cipher": 3024,
      "hmac": 3025,
      "ik": 3026,
      "ivi": 3027,
      "keccak": 3028,
      "odule": 3029,
      "pmp": 3030,
      "rm": 3031,
      "tect": 3032,
      "tree": 3033,
      "ww": 3034,
      "|-------------|------------------": 3035,
      "Ġ!": 3036,
      "Ġ>": 3037,
      "Ġqu": 3038,
      "Ġinactive": 3039,
      "step": 3040,
      "Ġpl": 3041,
      "Ġcross": 3042,
      "Ġlock": 3043,
      "itor": 3044,
      "itives": 3045,
      "Ġscl": 3046,
      "Ġsection": 3047,
      "Ġfsm": 3048,
      "Ġfour": 3049,
      "ctr": 3050,
      "iso": 3051,
      "Ġdc": 3052,
      "ific": 3053,
      "Ġrece": 3054,
      "ulus": 3055,
      "ecause": 3056,
      "Ġunder": 3057,
      "ently": 3058,
      "0001": 3059,
      "ĠSupport": 3060,
      "ump": 3061,
      "adv": 3062,
      "ading": 3063,
      "ĠCR": 3064,
      "ĠCfg": 3065,
      "uble": 3066,
      "Ġname": 3067,
      "Ġstop": 3068,
      "ocal": 3069,
      "Ġunit": 3070,
      "Ġunrol": 3071,
      "ĠEN": 3072,
      "ĠBid": 3073,
      "ĠMA": 3074,
      "integ": 3075,
      "ĠFlash": 3076,
      "ĠFeatures": 3077,
      "ĠVCORE": 3078,
      "ĠEnMasking": 3079,
      "connect": 3080,
      "Input": 3081,
      "ĠUn": 3082,
      "Ġmulti": 3083,
      "Ġvcore": 3084,
      "Ġconfigurable": 3085,
      "Ġverilator": 3086,
      "ĠSecure": 3087,
      "Ġdomains": 3088,
      "ESC": 3089,
      "dma": 3090,
      "Ġready": 3091,
      "OtpWidth": 3092,
      "OtpAddrWidth": 3093,
      "OtpIf": 3094,
      "OtpSizeWidth": 3095,
      "memAddrWidth": 3096,
      "memSizeByte": 3097,
      "ĠDepthW": 3098,
      "Ġconsum": 3099,
      "Ġconsider": 3100,
      "msg": 3101,
      "Ġstruct": 3102,
      "Ġeven": 3103,
      "Ġtriggered": 3104,
      "ĠKMAC": 3105,
      "Ġmultipl": 3106,
      "```": 3107,
      "Ġwriting": 3108,
      "Ġconsists": 3109,
      "Ġexecut": 3110,
      "Banks": 3111,
      "Ġphase": 3112,
      "timeout": 3113,
      "Ġselected": 3114,
      "Ġdescribed": 3115,
      "Ġdescribes": 3116,
      "ĠAlso": 3117,
      "Ġensure": 3118,
      "--------------|--------------------------------": 3119,
      "Ġclasses": 3120,
      "Ġmuxes": 3121,
      "Reset": 3122,
      "ĠInitialization": 3123,
      "Ġprior": 3124,
      "Ġhardening": 3125,
      "eHotWidth": 3126,
      "KeymgrDiv": 3127,
      "Ġunrolled": 3128,
      "OtpIfWidth": 3129,
      "--------------|--------------------------------|-------------|------------------": 3130,
      "()": 3131,
      ".,": 3132,
      "FifoDepth": 3133,
      "HO": 3134,
      "Ibex": 3135,
      "ILAT": 3136,
      "Msg": 3137,
      "NrHarts": 3138,
      "Sign": 3139,
      "Ver": 3140,
      "VER": 3141,
      "based": 3142,
      "dp": 3143,
      "dft": 3144,
      "ging": 3145,
      "map": 3146,
      "master": 3147,
      "pu": 3148,
      "phase": 3149,
      "scramble": 3150,
      "tain": 3151,
      "tdi": 3152,
      "vec": 3153,
      "xy": 3154,
      "};": 3155,
      "Ġtck": 3156,
      "Ġtree": 3157,
      "Ġtypes": 3158,
      "stable": 3159,
      "Ġpur": 3160,
      "Ġparity": 3161,
      "lex": 3162,
      "lement": 3163,
      "impl": 3164,
      "Ġloc": 3165,
      "itle": 3166,
      "Ġsda": 3167,
      "Ġflow": 3168,
      "Ġflex": 3169,
      "Ġdis": 3170,
      "Ġrunt": 3171,
      "Ġtoggle": 3172,
      "Ġwa": 3173,
      "Ġrel": 3174,
      "Ġret": 3175,
      "----------": 3176,
      "Ġmub": 3177,
      "//////": 3178,
      "ĠDIF": 3179,
      "ĠDUT": 3180,
      "Ġdesigned": 3181,
      "Ġalloc": 3182,
      "Ġthus": 3183,
      "ily": 3184,
      "very": 3185,
      "version": 3186,
      "ĠParameter": 3187,
      "tly": 3188,
      "lowRISC": 3189,
      "Ġnext": 3190,
      "Ġstable": 3191,
      "Ġstates": 3192,
      "unit": 3193,
      "unce": 3194,
      "plication": 3195,
      "ows": 3196,
      "ĠBU": 3197,
      "ference": 3198,
      "result": 3199,
      "gine": 3200,
      "ĠFrom": 3201,
      "bounce": 3202,
      "Ġsignature": 3203,
      "ĠInter": 3204,
      "Ġprop": 3205,
      "ĠInW": 3206,
      "ĠInst": 3207,
      "Ġsimple": 3208,
      "Ġexternal": 3209,
      "Ġshows": 3210,
      "ĠDebug": 3211,
      "ENT": 3212,
      "csrng": 3213,
      "EnMasking": 3214,
      "irStd": 3215,
      "Ġdetect": 3216,
      "Ġpackage": 3217,
      "Ġtrace": 3218,
      "Ġ1600": 3219,
      "Ġsupported": 3220,
      "cript": 3221,
      "Ġsynchronization": 3222,
      "ĠXOR": 3223,
      "ĠTLUL": 3224,
      "Ġfunctions": 3225,
      "ibrated": 3226,
      "Ġpoint": 3227,
      "ĠPRNG": 3228,
      "ptions": 3229,
      "Ġtargets": 3230,
      "Ġpassed": 3231,
      "Ġpairs": 3232,
      "Ġsteps": 3233,
      "simple": 3234,
      "Ġoptimization": 3235,
      "Ġfiltering": 3236,
      "ardened": 3237,
      "Ġprocessor": 3238,
      "Ġintegration": 3239,
      "Ġcryptographic": 3240,
      "fixed": 3241,
      "Ġperforms": 3242,
      "pattgen": 3243,
      "ngBusWidth": 3244,
      "Ġmeasurement": 3245,
      "chitecture": 3246,
      "Ġignored": 3247,
      "RESENT": 3248,
      "ĠCalibrated": 3249,
      "ĠConfigurations": 3250,
      "ILATOR": 3251,
      "Ġruntime": 3252,
      "69": 3253,
      "70": 3254,
      "Access": 3255,
      "Con": 3256,
      "Documentation": 3257,
      "Dump": 3258,
      "EE": 3259,
      "Fast": 3260,
      "MHz": 3261,
      "MFast": 3262,
      "Os": 3263,
      "OCD": 3264,
      "ODO": 3265,
      "Port": 3266,
      "SH": 3267,
      "UX": 3268,
      "Zc": 3269,
      "arent": 3270,
      "ced": 3271,
      "ches": 3272,
      "dut": 3273,
      "dWidth": 3274,
      "gf": 3275,
      "gor": 3276,
      "gate": 3277,
      "hardened": 3278,
      "med": 3279,
      "pq": 3280,
      "pin": 3281,
      "si": 3282,
      "ten": 3283,
      "temp": 3284,
      "title": 3285,
      "wdata": 3286,
      "with": 3287,
      "wik": 3288,
      "yIn": 3289,
      "Ġtrst": 3290,
      "storage": 3291,
      "Ġpages": 3292,
      "Ġprd": 3293,
      "Ġcrash": 3294,
      "import": 3295,
      "imulus": 3296,
      "dep": 3297,
      "Ġob": 3298,
      "Ġowner": 3299,
      "Ġsbox": 3300,
      "Ġscramble": 3301,
      "alu": 3302,
      "Ġ//////////": 3303,
      "Ġfa": 3304,
      "ĠĠĠĠĠĠĠĠĠĠĠĠĠĠĠĠĠĠĠĠĠĠĠĠĠĠĠĠĠĠ": 3305,
      "Ġrvalid": 3306,
      "Ġrng": 3307,
      "root": 3308,
      "ified": 3309,
      "Ġreseed": 3310,
      "ulses": 3311,
      "007": 3312,
      "Ġmat": 3313,
      "ĠSize": 3314,
      "ĠTarget": 3315,
      "ĠDPI": 3316,
      "ĠDumm": 3317,
      "Ġoff": 3318,
      "Ġdel": 3319,
      "ubis": 3320,
      "chain": 3321,
      "Ġnmi": 3322,
      "Ġonce": 3323,
      "NumSrc": 3324,
      "ĠBranch": 3325,
      "corei": 3326,
      "Ġcomput": 3327,
      "ĠĠĠĠĠĠĠĠĠĠĠĠĠĠĠĠĠĠĠĠĠĠĠĠĠĠĠĠĠĠĠĠĠĠĠĠĠĠĠĠĠĠ": 3328,
      "Ġgating": 3329,
      "FFFFFFF": 3330,
      "Ġprogramm": 3331,
      "ĠNUM": 3332,
      "Ġifu": 3333,
      "crc": 3334,
      "crash": 3335,
      "Ġcontents": 3336,
      "model": 3337,
      "Ġelement": 3338,
      "const": 3339,
      "ĠLevel": 3340,
      "ĠLocal": 3341,
      "ĠGpio": 3342,
      "ĠEnableDataIntg": 3343,
      "Ġ48": 3344,
      "Ġgeneration": 3345,
      "AddrSh": 3346,
      "Ġtimes": 3347,
      "388": 3348,
      "RegWidth": 3349,
      "ĠState": 3350,
      "Ġinstantiation": 3351,
      "redict": 3352,
      "irc": 3353,
      "SRC": 3354,
      "Ġcounts": 3355,
      "OtpAddrSh": 3356,
      "Ġduring": 3357,
      "struct": 3358,
      "KeySize": 3359,
      "Ġfiles": 3360,
      "ĠFIFOs": 3361,
      "////////////////////////////////////////////////": 3362,
      "BNone": 3363,
      "ilterStages": 3364,
      "structions": 3365,
      "CntWidth": 3366,
      "Ġports": 3367,
      "Ġsequenc": 3368,
      "Ġcountermeas": 3369,
      "|:------------------------------------------------": 3370,
      "Ġdrive": 3371,
      "Ġsmall": 3372,
      "Ġassumptions": 3373,
      "OutW": 3374,
      "Ġinverted": 3375,
      "Ġoperand": 3376,
      "Trigger": 3377,
      "Ġphysical": 3378,
      "Ġresults": 3379,
      "initial": 3380,
      "Ġcomplex": 3381,
      "pgaBufGlobal": 3382,
      "Ġinsn": 3383,
      "Ġworking": 3384,
      "ĠCrashDump": 3385,
      "6592": 3386,
      "NumClocks": 3387,
      "Ġmetho": 3388,
      "ĠRndCnstLfsrSeed": 3389,
      "Ġattacks": 3390,
      "SEV": 3391,
      "Instances": 3392,
      "Ġpullup": 3393,
      "ĠSelect": 3394,
      "subreg": 3395,
      "ART": 3396,
      "PHASE": 3397,
      "Ġunique": 3398,
      "ioPads": 3399,
      "Ġdetermine": 3400,
      "Ġhttps": 3401,
      "ĠCRC": 3402,
      "ĠCfgSram": 3403,
      "HOST": 3404,
      "yInstructions": 3405,
      "ĠDummyInstructions": 3406,
      "OtpAddrShift": 3407,
      "ĠCrashDumpWidth": 3408,
      "..": 3409,
      "18": 3410,
      "BA": 3411,
      "BTAG": 3412,
      "CA": 3413,
      "CM": 3414,
      "Ch": 3415,
      "DCC": 3416,
      "FI": 3417,
      "NOR": 3418,
      "NoF": 3419,
      "SA": 3420,
      "Sha": 3421,
      "Wkup": 3422,
      "ale": 3423,
      "byte": 3424,
      "db": 3425,
      "link": 3426,
      "mul": 3427,
      "mark": 3428,
      "ob": 3429,
      "Ġ9": 3430,
      "Ġj": 3431,
      "Ġke": 3432,
      "Ġemp": 3433,
      "Ġinclu": 3434,
      "Ġtms": 3435,
      "real": 3436,
      "loss": 3437,
      "Ġab": 3438,
      "Ġpol": 3439,
      "Ġpseudo": 3440,
      "Ġpulses": 3441,
      "ond": 3442,
      "Ġcert": 3443,
      "Ġopen": 3444,
      "Ġocc": 3445,
      "Ġsample": 3446,
      "Ġsince": 3447,
      "Ġscript": 3448,
      "Ġbin": 3449,
      "Ġfall": 3450,
      "asc": 3451,
      "Ġris": 3452,
      "Ġwould": 3453,
      "Ġwakeup": 3454,
      "Ġimem": 3455,
      "Ġprimitives": 3456,
      "access": 3457,
      "ĠSh": 3458,
      "ĠSet": 3459,
      "ader": 3460,
      "register": 3461,
      "ĠDB": 3462,
      "ĠDF": 3463,
      "Ġthreshold": 3464,
      "ĠRE": 3465,
      "ĠRandom": 3466,
      "Ġhap": 3467,
      "Ġhold": 3468,
      "Ġasynchronous": 3469,
      "ĠPre": 3470,
      "ĠPRESENT": 3471,
      "Ġstyle": 3472,
      "Ġstatic": 3473,
      "uses": 3474,
      "uspend": 3475,
      "vices": 3476,
      "otal": 3477,
      "Ġwithout": 3478,
      "anding": 3479,
      "Ġengine": 3480,
      "respon": 3481,
      "ynchroniz": 3482,
      "Ġregfile": 3483,
      "Ġcompi": 3484,
      "ĠĠĠĠĠĠĠĠĠĠĠĠĠĠĠĠĠĠĠĠĠĠĠĠĠĠĠĠĠĠĠĠĠĠĠĠĠĠĠĠĠĠĠĠĠ": 3485,
      "comple": 3486,
      "Ġgates": 3487,
      "plex": 3488,
      "iled": 3489,
      "Ġactiv": 3490,
      "tern": 3491,
      "Ġcannot": 3492,
      "pens": 3493,
      "codes": 3494,
      "ĠUse": 3495,
      "Ġkeccak": 3496,
      "Ġleaf": 3497,
      "ront": 3498,
      "Ġasserts": 3499,
      "Ġfollows": 3500,
      "Ġmasks": 3501,
      "ĠSecVolatileRawUnlockEn": 3502,
      "Ġsecond": 3503,
      "MaxSync": 3504,
      "Period": 3505,
      "Ġshare": 3506,
      "Ġwidths": 3507,
      "ACK": 3508,
      "cntr": 3509,
      "Ġconfigurations": 3510,
      "prio": 3511,
      "Ġcompa": 3512,
      "Ġwritten": 3513,
      "Ġassumed": 3514,
      "rivi": 3515,
      "Ġyou": 3516,
      "retch": 3517,
      "IdxW": 3518,
      "diff": 3519,
      "ĠIdent": 3520,
      "Ġreduce": 3521,
      "]&!": 3522,
      "Ġcurrently": 3523,
      "ĠSwAccess": 3524,
      "Ġduty": 3525,
      "ieldW": 3526,
      "Ġconnects": 3527,
      "Ġvariant": 3528,
      "Ġcombinational": 3529,
      "ĠDetails": 3530,
      "ĠPWM": 3531,
      "Ġexpected": 3532,
      "Ġequal": 3533,
      "ĠMAX": 3534,
      "Signal": 3535,
      "VERILATOR": 3536,
      "gorith": 3537,
      "Ġdelays": 3538,
      "Shares": 3539,
      "Ġemplo": 3540,
      "lossary": 3541,
      "Ġhappens": 3542,
      "({": 3543,
      ")(": 3544,
      ",//": 3545,
      "048": 3546,
      "14": 3547,
      "35": 3548,
      "512": 3549,
      "87": 3550,
      "800000": 3551,
      ":`": 3552,
      ":---------|---------:|:----------------------------------------------------------------": 3553,
      "Al": 3554,
      "Clk": 3555,
      "Esc": 3556,
      "NAlerts": 3557,
      "NPower": 3558,
      "alo": 3559,
      "br": 3560,
      "cord": 3561,
      "fb": 3562,
      "fetch": 3563,
      "ient": 3564,
      "ilog": 3565,
      "lpg": 3566,
      "mand": 3567,
      "oke": 3568,
      "press": 3569,
      "pulp": 3570,
      "run": 3571,
      "rase": 3572,
      "rust": 3573,
      "right": 3574,
      "sd": 3575,
      "tdo": 3576,
      "tWLEN": 3577,
      "xor": 3578,
      "Ġ6": 3579,
      "Ġerase": 3580,
      "utation": 3581,
      "Ġinversion": 3582,
      "Ġtdi": 3583,
      "ren": 3584,
      "Ġpr": 3585,
      "Ġpar": 3586,
      "Ġpres": 3587,
      "ories": 3588,
      "Ġcsb": 3589,
      "arb": 3590,
      "arse": 3591,
      "Ġlong": 3592,
      "its": 3593,
      "decode": 3594,
      "Ġsure": 3595,
      "Ġsilicon": 3596,
      "Ġbecause": 3597,
      "Ġtheir": 3598,
      "ang": 3599,
      "isor": 3600,
      "Ġrcon": 3601,
      "Ġoutside": 3602,
      "Ġinteg": 3603,
      "Ġintended": 3604,
      "this": 3605,
      "Ġmon": 3606,
      "ĠSHA": 3607,
      "ĠSilicon": 3608,
      "ĠSpar": 3609,
      "Ġbecom": 3610,
      "ĠTim": 3611,
      "ĠTag": 3612,
      "ĠTODO": 3613,
      "ĠTrivi": 3614,
      "Ġforce": 3615,
      "Ġdead": 3616,
      "Ġdecoder": 3617,
      "ĠRC": 3618,
      "clken": 3619,
      "abling": 3620,
      "see": 3621,
      "select": 3622,
      "ĠAS": 3623,
      "Ġnow": 3624,
      "Ġcond": 3625,
      "Ġ^=": 3626,
      "Ġlint": 3627,
      "Ġlay": 3628,
      "ĠEsc": 3629,
      "ĠModule": 3630,
      "Ġrespect": 3631,
      "viron": 3632,
      "ĠFpgaBufGlobal": 3633,
      "app": 3634,
      "ĠĠĠĠĠĠĠĠĠĠĠĠĠĠĠĠĠĠĠĠĠĠĠĠĠĠĠĠĠĠĠĠĠĠ": 3635,
      "ĠĠĠĠĠĠĠĠĠĠĠĠĠĠĠĠĠĠĠĠĠĠĠĠĠĠĠĠĠĠĠĠĠĠĠĠ": 3636,
      "trigger": 3637,
      "ĠVal": 3638,
      "Ġarea": 3639,
      "ĠNo": 3640,
      "ĠEnData": 3641,
      "Ġevery": 3642,
      "topgen": 3643,
      "ASAP": 3644,
      "ĠEnableP": 3645,
      "AlertAsyncOn": 3646,
      "proxy": 3647,
      "Ġshall": 3648,
      "Ġshift": 3649,
      "Ġgenerates": 3650,
      "sparse": 3651,
      "Ġperipherals": 3652,
      "Ġvio": 3653,
      "eature": 3654,
      "ĠCLKMGR": 3655,
      "ĠSecSBoxImpl": 3656,
      "ĠTool": 3657,
      "Ġwraps": 3658,
      "Ġinteract": 3659,
      "SizeECC": 3660,
      "Perm": 3661,
      "ĠMemECC": 3662,
      "share": 3663,
      "Ġimplementations": 3664,
      "Ġshared": 3665,
      "Ġark": 3666,
      "Ġpattern": 3667,
      "DEV": 3668,
      "Ġupstream": 3669,
      "ACHE": 3670,
      "prince": 3671,
      "Ġserial": 3672,
      "Ġrespons": 3673,
      "Ġdoesn": 3674,
      "âĶĤ": 3675,
      "Ġwrites": 3676,
      "ppc": 3677,
      "Ġ512": 3678,
      "sPerBank": 3679,
      "Ġinstructions": 3680,
      "Ġallowed": 3681,
      "ĠIdxW": 3682,
      "Ġvcaon": 3683,
      "ĠNoFpgaBuf": 3684,
      "ĢâĶĢâĶĢâĶĢâĶ": 3685,
      "ĠSramAw": 3686,
      "Ġappro": 3687,
      "ĠRndCnstLfsrPerm": 3688,
      "ExtWLEN": 3689,
      "Ġvariable": 3690,
      "Ġentry": 3691,
      "ĠActive": 3692,
      "ĠActVal": 3693,
      "SingleErrorDetectReverse": 3694,
      "SoC": 3695,
      "ĠMHPMCounterNum": 3696,
      "ĠCPU": 3697,
      "irectional": 3698,
      "Ġindepend": 3699,
      "Ġprovisioned": 3700,
      "Ġincre": 3701,
      "Ġpermutation": 3702,
      "Ġdccm": 3703,
      "Inputs": 3704,
      "Ġconsidered": 3705,
      "Ġmultiplication": 3706,
      "Ġflexib": 3707,
      "ĠParameters": 3708,
      "ĠBUFG": 3709,
      "mediate": 3710,
      "ĠEnableDataIntgGen": 3711,
      "Ġincluding": 3712,
      "Ġoccur": 3713,
      "Ġrising": 3714,
      "ĠDBW": 3715,
      "complete": 3716,
      "vironment": 3717,
      "ĠEnDataPort": 3718,
      "\".": 3719,
      "+`": 3720,
      ".](../../../../../": 3721,
      "37": 3722,
      "49": 3723,
      "413": 3724,
      "54": 3725,
      "89": 3726,
      "80000": 3727,
      "AW": 3728,
      "Dom": 3729,
      "Digest": 3730,
      "Erase": 3731,
      "Gate": 3732,
      "Hw": 3733,
      "OL": 3734,
      "OLE": 3735,
      "RW": 3736,
      "SP": 3737,
      "To": 3738,
      "Test": 3739,
      "Total": 3740,
      "`)": 3741,
      "`,": 3742,
      "`:": 3743,
      "aim": 3744,
      "cw": 3745,
      "cycle": 3746,
      "csb": 3747,
      "ched": 3748,
      "ciph": 3749,
      "dom": 3750,
      "dress": 3751,
      "eff": 3752,
      "filter": 3753,
      "ike": 3754,
      "lank": 3755,
      "lines": 3756,
      "ness": 3757,
      "ore": 3758,
      "ough": 3759,
      "oob": 3760,
      "page": 3761,
      "rs": 3762,
      "rapper": 3763,
      "sed": 3764,
      "sify": 3765,
      "sensor": 3766,
      "tection": 3767,
      "vert": 3768,
      "vld": 3769,
      "ward": 3770,
      "Ġ_": 3771,
      "Ġz": 3772,
      "Ġem": 3773,
      "ĠKey": 3774,
      "Ġempty": 3775,
      "inc": 3776,
      "inally": 3777,
      "erm": 3778,
      "erved": 3779,
      "Ġtable": 3780,
      "Ġaut": 3781,
      "Ġparam": 3782,
      "Ġphy": 3783,
      "ense": 3784,
      "Ġcreator": 3785,
      "Ġcirc": 3786,
      "aries": 3787,
      "delay": 3788,
      "Ġbase": 3789,
      "duction": 3790,
      "Ġ(`": 3791,
      "Ġfrequ": 3792,
      "Ġdp": 3793,
      "Ġdashbo": 3794,
      "Ġraw": 3795,
      "roup": 3796,
      "Ġrecord": 3797,
      "cope": 3798,
      "ular": 3799,
      "ential": 3800,
      "Ġmap": 3801,
      "ĠSee": 3802,
      "ĠTB": 3803,
      "ĠTrans": 3804,
      "ĠTOP": 3805,
      "ĠTIE": 3806,
      "/////": 3807,
      "ĠCDC": 3808,
      "Ġdev": 3809,
      "Ġalgorith": 3810,
      "ctrls": 3811,
      "iped": 3812,
      "Ġassigned": 3813,
      "endor": 3814,
      "verse": 3815,
      "ĠAr": 3816,
      "ĠAll": 3817,
      "ĠPack": 3818,
      "ĠPinmux": 3819,
      "ĠParity": 3820,
      "chie": 3821,
      "channel": 3822,
      "Ġstimulus": 3823,
      "NumBuf": 3824,
      "NumInstances": 3825,
      "Ġline": 3826,
      "Ġlength": 3827,
      "play": 3828,
      "clr": 3829,
      "omial": 3830,
      "ferred": 3831,
      "ufact": 3832,
      "ĠMain": 3833,
      "ynomial": 3834,
      "interrupt": 3835,
      "Ġcomportable": 3836,
      "Ġbeginning": 3837,
      "ĠĠĠĠĠĠĠĠĠĠĠĠĠĠĠĠĠĠĠĠĠĠĠĠĠĠĠĠĠĠĠĠĠĠĠĠĠĠĠĠ": 3838,
      "ĠĠĠĠĠĠĠĠĠĠĠĠĠĠĠĠĠĠĠĠĠĠĠĠĠĠĠĠĠĠĠĠĠĠĠĠĠĠĠĠĠ": 3839,
      "Ġgnt": 3840,
      "ĠWrapper": 3841,
      "ĠInv": 3842,
      "ĠLife": 3843,
      "ĠGrey": 3844,
      "REG": 3845,
      "penOCD": 3846,
      "ording": 3847,
      "process": 3848,
      "Ġ40": 3849,
      "ĠVerification": 3850,
      "Ġknow": 3851,
      "Ġtopgen": 3852,
      "STR": 3853,
      "ually": 3854,
      "Ġorig": 3855,
      "counter": 3856,
      "Ġverify": 3857,
      "Ġtiming": 3858,
      "Ġmemories": 3859,
      "aking": 3860,
      "ĠStErase": 3861,
      "ĠSecS": 3862,
      "ĠSecurity": 3863,
      "latform": 3864,
      "Ġcommon": 3865,
      "dmem": 3866,
      "ship": 3867,
      "Ġtrue": 3868,
      "Ġformat": 3869,
      "---------------": 3870,
      "dccm": 3871,
      "Ġinteraction": 3872,
      "Ġintermediate": 3873,
      "pliant": 3874,
      "rdy": 3875,
      "127": 3876,
      "ĠSoC": 3877,
      "2473": 3878,
      "Ġ/*": 3879,
      "Ġdesigns": 3880,
      "ĠPadType": 3881,
      "pgaGate": 3882,
      "ĠCommand": 3883,
      "ĠSVAs": 3884,
      "023": 3885,
      "Ġdrives": 3886,
      "LfsrDw": 3887,
      "IntgWidth": 3888,
      "Ġoperations": 3889,
      "Ġaccording": 3890,
      "OPT": 3891,
      "ĠAddr": 3892,
      "InfoDefault": 3893,
      "Ġsideload": 3894,
      "graphy": 3895,
      "Ġflip": 3896,
      "ĠPartInfoDefault": 3897,
      "ĠNoFpgaBufG": 3898,
      "Ġdependency": 3899,
      "Ġsche": 3900,
      "Ġpositive": 3901,
      "096": 3902,
      "ZeroVal": 3903,
      "ĠDefaultTargetCfg": 3904,
      "ĠSignals": 3905,
      "Ġcorrectly": 3906,
      "ĠMasking": 3907,
      "ptionally": 3908,
      "Ġlogi": 3909,
      "ĠWordZeroVal": 3910,
      "Ġreceives": 3911,
      "ĠBidirStd": 3912,
      "Ġstructure": 3913,
      "Ġwait": 3914,
      "ĠTargetCfg": 3915,
      "Ġmethods": 3916,
      "ĠREQ": 3917,
      "ĠSparsify": 3918,
      "OLEAD": 3919,
      "Ġdashboard": 3920,
      "66": 3921,
      "81": 3922,
      "900000000": 3923,
      "BDE": 3924,
      "CP": 3925,
      "CME": 3926,
      "CNT": 3927,
      "Ctrl": 3928,
      "Each": 3929,
      "FB": 3930,
      "FIFO": 3931,
      "FieldW": 3932,
      "MI": 3933,
      "MUX": 3934,
      "NS": 3935,
      "OW": 3936,
      "Pass": 3937,
      "PAD": 3938,
      "Pages": 3939,
      "Rem": 3940,
      "RDATA": 3941,
      "RateWidth": 3942,
      "Sto": 3943,
      "SHA": 3944,
      "Slot": 3945,
      "Top": 3946,
      "There": 3947,
      "Time": 3948,
      "VAL": 3949,
      "Wdr": 3950,
      "Word": 3951,
      "When": 3952,
      "XI": 3953,
      "XOR": 3954,
      "aind": 3955,
      "ailed": 3956,
      "benc": 3957,
      "blob": 3958,
      "fs": 3959,
      "from": 3960,
      "guide": 3961,
      "hrough": 3962,
      "iro": 3963,
      "kt": 3964,
      "kip": 3965,
      "match": 3966,
      "nor": 3967,
      "oT": 3968,
      "osh": 3969,
      "ra": 3970,
      "rtl": 3971,
      "random": 3972,
      "single": 3973,
      "sdo": 3974,
      "silicon": 3975,
      "sKeymgrDiv": 3976,
      "ts": 3977,
      "ustr": 3978,
      "Ġill": 3979,
      "Ġecc": 3980,
      "Ġtechn": 3981,
      "Ġtakes": 3982,
      "reSlot": 3983,
      "style": 3984,
      "Ġaffect": 3985,
      "Ġachie": 3986,
      "Ġpost": 3987,
      "Ġpipeline": 3988,
      "atas": 3989,
      "leep": 3990,
      "Ġcap": 3991,
      "Ġcall": 3992,
      "heet": 3993,
      "argin": 3994,
      "ites": 3995,
      "des": 3996,
      "dexW": 3997,
      "Ġsect": 3998,
      "Ġsolution": 3999,
      "Ġslot": 4000,
      "Ġbid": 4001,
      "alle": 4002,
      "always": 4003,
      "Ġ//////////////////": 4004,
      "ets": 4005,
      "----+": 4006,
      "-------|": 4007,
      "Ġfeed": 4008,
      "Ġfeature": 4009,
      "asScan": 4010,
      "Ġdff": 4011,
      "Ġdivi": 4012,
      "Ġ.*": 4013,
      "Ġwd": 4014,
      "Ġwide": 4015,
      "Ġwvalid": 4016,
      "Ġrele": 4017,
      "Ġrepres": 4018,
      "Ġrepresent": 4019,
      "cosim": 4020,
      "Ġimm": 4021,
      "ulated": 4022,
      "acer": 4023,
      "009": 4024,
      "0007": 4025,
      "Ġmp": 4026,
      "Ġmatch": 4027,
      "ĠScramb": 4028,
      "ĠTE": 4029,
      "ĠCan": 4030,
      "ĠCheck": 4031,
      "ĠCTR": 4032,
      "ĠDMA": 4033,
      "ations": 4034,
      "vector": 4035,
      "ĠRACL": 4036,
      "ĠRdWidth": 4037,
      "ĠRoT": 4038,
      "Ġhence": 4039,
      "Ġhowever": 4040,
      "Ġhere": 4041,
      "ilar": 4042,
      "Ġcould": 4043,
      "ĠAL": 4044,
      "ĠAt": 4045,
      "ĠAPI": 4046,
      "ĠAXI": 4047,
      "ĠPy": 4048,
      "ĠPat": 4049,
      "ĠPipeline": 4050,
      "ĠParent": 4051,
      "Ġne": 4052,
      "Ġnam": 4053,
      "Ġstream": 4054,
      "emon": 4055,
      "NumBanks": 4056,
      "open": 4057,
      "isting": 4058,
      "unk": 4059,
      "Ġlim": 4060,
      "Ġunused": 4061,
      "####": 4062,
      "----------------------------": 4063,
      "secure": 4064,
      "ĠEs": 4065,
      "ĠEarlgrey": 4066,
      "Ġbyp": 4067,
      "Ġbytes": 4068,
      "wrap": 4069,
      "ĠBuffer": 4070,
      "ĠByte": 4071,
      "Ġ200": 4072,
      "ypically": 4073,
      "ĠMult": 4074,
      "ĠMsg": 4075,
      "Ġresp": 4076,
      "ments": 4077,
      "viv": 4078,
      "virtual": 4079,
      "Ġtested": 4080,
      "Ġtestplan": 4081,
      "00001": 4082,
      "ĠFib": 4083,
      "ĠFurther": 4084,
      "ĠFilterStages": 4085,
      "Ġcompliant": 4086,
      "Ġitsel": 4087,
      "ĠĠĠĠĠĠĠĠĠĠĠĠĠĠĠĠĠĠĠĠĠĠĠĠĠĠĠĠĠĠĠĠĠ": 4088,
      "Ġgroup": 4089,
      "Ġproject": 4090,
      "Ġprotect": 4091,
      "ĠWe": 4092,
      "3123": 4093,
      "trWidth": 4094,
      "tract": 4095,
      "ĠInstruction": 4096,
      "perm": 4097,
      "iving": 4098,
      "ĠGlossary": 4099,
      "ĠGalo": 4100,
      "strict": 4101,
      "ING": 4102,
      "Ġrvfi": 4103,
      "encies": 4104,
      "ĠEnableRsp": 4105,
      "ĠEnableECC": 4106,
      "Ġsimulator": 4107,
      "program": 4108,
      "Ġir": 4109,
      "ĠUN": 4110,
      "ĠUART": 4111,
      "Once": 4112,
      "OneHotWidth": 4113,
      "`](../": 4114,
      "ĠBusWidth": 4115,
      "ATTR": 4116,
      "TROP": 4117,
      "Ġinstantiate": 4118,
      "ĠSecMaxSync": 4119,
      "irq": 4120,
      "poses": 4121,
      "Ġreferred": 4122,
      "714": 4123,
      "CCD": 4124,
      "ĠResetAll": 4125,
      "door": 4126,
      "Ġuseful": 4127,
      "ĠRegWidth": 4128,
      "ĠRegFile": 4129,
      "pgd": 4130,
      "AAB": 4131,
      "MaxWidth": 4132,
      "ĠOutWidth": 4133,
      "Ġhandle": 4134,
      "useSoC": 4135,
      "OTP": 4136,
      "ĠPMPRst": 4137,
      "Ġspace": 4138,
      "Ġsynchronizes": 4139,
      "DEBA": 4140,
      "Ġmaintain": 4141,
      "ĠJitter": 4142,
      "0781": 4143,
      "Core": 4144,
      "Ġvirtual": 4145,
      "67003": 4146,
      "Ġcompar": 4147,
      "SelWidth": 4148,
      "1024": 4149,
      "Ġassumes": 4150,
      "Ġaccu": 4151,
      "ĠICACHE": 4152,
      "ĠInputs": 4153,
      "ĠCount": 4154,
      "Ġtypedef": 4155,
      "Ġmeasuring": 4156,
      "BitSelWidth": 4157,
      "Ġiccm": 4158,
      "Ġcomplete": 4159,
      "avor": 4160,
      "---------------|": 4161,
      "busy": 4162,
      "Ġvcc": 4163,
      "Ġvcmain": 4164,
      "Ġflavor": 4165,
      "ĠPartition": 4166,
      "predec": 4167,
      "Ġintegrated": 4168,
      "ĠCrashRem": 4169,
      "ĠInfoTypes": 4170,
      "ĠSramDw": 4171,
      "ĠAddress": 4172,
      "path": 4173,
      "Ġmetal": 4174,
      "8050": 4175,
      "ngBusBitSelWidth": 4176,
      "BaseAddr": 4177,
      "Ġproduces": 4178,
      "atermark": 4179,
      "ĠINTR": 4180,
      "ĠLock": 4181,
      "Ġbroader": 4182,
      "ĠAnalog": 4183,
      "ĠMHPMCounterWidth": 4184,
      "ĠĠĠĠĠĠĠĠĠĠĠĠĠĠĠĠĠĠĠĠĠĠĠĠĠĠĠĠĠĠĠĠĠĠĠĠĠĠĠĠĠĠĠĠĠĠĠĠĠĠĠĠĠĠĠĠĠĠĠĠĠĠĠ": 4185,
      "Ġindic": 4186,
      "Ġrange": 4187,
      "ĠCntWidth": 4188,
      "operand": 4189,
      "Ġcommunication": 4190,
      "Ġaccumulator": 4191,
      "ĠSBoxImplDom": 4192,
      "2606": 4193,
      "ĠENTROP": 4194,
      "msgfifo": 4195,
      "Verilog": 4196,
      "ĠInterconnect": 4197,
      "Const": 4198,
      "Ġcrashdump": 4199,
      "Ġfault": 4200,
      "FFFFFFFC": 4201,
      "crashdump": 4202,
      "Ġcountermeasures": 4203,
      "Ġjust": 4204,
      "Ġcompares": 4205,
      "retchCount": 4206,
      "EscCntDw": 4207,
      "Ġmonitor": 4208,
      "ĠTimer": 4209,
      "ĠTrivium": 4210,
      "Ġdeadlock": 4211,
      "Ġlayer": 4212,
      "ĠValid": 4213,
      "ĠEnableParity": 4214,
      "496": 4215,
      "800007": 4216,
      "9000000001": 4217,
      "StoreSlot": 4218,
      "ainder": 4219,
      "benches": 4220,
      "oshiro": 4221,
      "Ġillustr": 4222,
      "Ġtechnology": 4223,
      "Ġachieved": 4224,
      "atasheet": 4225,
      "Ġsections": 4226,
      "Ġ////////////////////": 4227,
      "asScanMode": 4228,
      "Ġrepresents": 4229,
      "Ġitself": 4230,
      "31234": 4231,
      "ĠGalois": 4232,
      "ĠCrashRemainder": 4233,
      "ĠENTROPY": 4234,
      "();": 4235,
      "(),": 4236,
      "*/": 4237,
      ".](../../../../": 4238,
      "1023": 4239,
      "47": 4240,
      "53": 4241,
      "511": 4242,
      "84": 4243,
      "At": 4244,
      "AME": 4245,
      "App": 4246,
      "CS": 4247,
      "Creator": 4248,
      "CHA": 4249,
      "DP": 4250,
      "DIF": 4251,
      "EF": 4252,
      "EY": 4253,
      "Even": 4254,
      "Eps": 4255,
      "IST": 4256,
      "Mp": 4257,
      "Mem": 4258,
      "Mubis": 4259,
      "NN": 4260,
      "OOT": 4261,
      "Parameter": 4262,
      "Ping": 4263,
      "POR": 4264,
      "Please": 4265,
      "Rnd": 4266,
      "ROM": 4267,
      "RACL": 4268,
      "SC": 4269,
      "ales": 4270,
      "bank": 4271,
      "build": 4272,
      "branch": 4273,
      "cb": 4274,
      "cing": 4275,
      "dd": 4276,
      "event": 4277,
      "fl": 4278,
      "flow": 4279,
      "full": 4280,
      "gnt": 4281,
      "ghash": 4282,
      "hent": 4283,
      "kB": 4284,
      "lp": 4285,
      "mio": 4286,
      "nvm": 4287,
      "nown": 4288,
      "over": 4289,
      "pa": 4290,
      "rf": 4291,
      "ray": 4292,
      "sig": 4293,
      "spec": 4294,
      "synchroniz": 4295,
      "ted": 4296,
      "wise": 4297,
      "|----------------": 4298,
      "âĢ": 4299,
      "Ġ\\": 4300,
      "Ġ}": 4301,
      "Ġed": 4302,
      "inst": 4303,
      "inim": 4304,
      "erial": 4305,
      "eremon": 4306,
      "Ġinvalid": 4307,
      "reate": 4308,
      "Ġadv": 4309,
      "Ġpipel": 4310,
      "atio": 4311,
      "less": 4312,
      "ons": 4313,
      "Ġctrl": 4314,
      "array": 4315,
      "itory": 4316,
      "Ġscrambling": 4317,
      "Ġsuspend": 4318,
      "alse": 4319,
      "Ġfo": 4320,
      "Ġfatal": 4321,
      "asing": 4322,
      "antly": 4323,
      "Ġtoo": 4324,
      "Ġreas": 4325,
      "Ġreport": 4326,
      "Ġrepos": 4327,
      "Ġmakes": 4328,
      "Ġ14": 4329,
      "ĠSim": 4330,
      "ĠSTA": 4331,
      "Ġbeat": 4332,
      "::*;(": 4333,
      "ĠĠĠĠĠĠĠčĊ": 4334,
      "ĠCS": 4335,
      "gramming": 4336,
      "ĠDerived": 4337,
      "ĠDocumentation": 4338,
      "#(.": 4339,
      "ĠRom": 4340,
      "ĠRoot": 4341,
      "ĠRngBusWidth": 4342,
      "Ġhav": 4343,
      "Ġhalt": 4344,
      "Ġcol": 4345,
      "aged": 4346,
      "vers": 4347,
      "ĠAss": 4348,
      "ĠPr": 4349,
      "ĠPin": 4350,
      "ĠPort": 4351,
      "ĠOpenOCD": 4352,
      "ĠOSC": 4353,
      "chip": 4354,
      "Ġconstruct": 4355,
      "celer": 4356,
      "NumWkup": 4357,
      "way": 4358,
      "istr": 4359,
      "Ġlat": 4360,
      "Ġlatch": 4361,
      "security": 4362,
      "Ġenvironment": 4363,
      "ĠBas": 4364,
      "ĠBind": 4365,
      "ĠHMAC": 4366,
      "Ġregist": 4367,
      "ĠĠĠĠĠĠĠĠĠĠĠĠĠĠĠĠĠĠĠĠĠĠĠĠĠĠĠĠĠĠĠĠĠĠĠĠĠĠĠĠĠĠĠĠĠĠĠĠĠĠĠ": 4368,
      "**:": 4369,
      "Ġprogramming": 4370,
      "ĠĠĠĠĠĠĠĠĠĠčĊ": 4371,
      "testation": 4372,
      "ively": 4373,
      "ĠNon": 4374,
      "ĠNOT": 4375,
      "Ġchecked": 4376,
      "Ġeas": 4377,
      "These": 4378,
      "INDE": 4379,
      "INIT": 4380,
      "Ġattr": 4381,
      "REQ": 4382,
      "canright": 4383,
      "Ġnoted": 4384,
      "bufg": 4385,
      "Ġsimilar": 4386,
      "prog": 4387,
      "ators": 4388,
      "ĠUsing": 4389,
      "Ġcho": 4390,
      "010": 4391,
      "Ġaccept": 4392,
      "Ġadder": 4393,
      "Ġfollowed": 4394,
      "egrated": 4395,
      "EnVal": 4396,
      "define": 4397,
      "Ġrequested": 4398,
      "](../../../../../../": 4399,
      "ĠSecCheck": 4400,
      "Ġdouble": 4401,
      "Ġonehot": 4402,
      "Ġmanip": 4403,
      "double": 4404,
      "shift": 4405,
      "toolchain": 4406,
      "format": 4407,
      "Ġmodes": 4408,
      "ssible": 4409,
      "Read": 4410,
      "Ġhandling": 4411,
      "Ġhandles": 4412,
      "StateWidth": 4413,
      "source": 4414,
      "Ġstarting": 4415,
      "KeyDefault": 4416,
      "IOs": 4417,
      "insn": 4418,
      "Ġaddresses": 4419,
      "|:---------|---------:|:----------------------------------------------------------------": 4420,
      "Ġoverall": 4421,
      "CON": 4422,
      "Ġarchitecture": 4423,
      "Ġbusy": 4424,
      "Ġpartition": 4425,
      "ĠOne": 4426,
      "ĠOnly": 4427,
      "crypt": 4428,
      "Ġpossible": 4429,
      "192": 4430,
      "Ġcompil": 4431,
      "Ġinvert": 4432,
      "Ġoperator": 4433,
      "Ġoperating": 4434,
      "Ġ50": 4435,
      "SramType": 4436,
      "Seeds": 4437,
      "Ġfreeze": 4438,
      "words": 4439,
      "Ġmultiplex": 4440,
      "Ġworks": 4441,
      "fixes": 4442,
      "Ġapplication": 4443,
      "Ġcreated": 4444,
      "Ġscales": 4445,
      "RstReq": 4446,
      "ieldEnVal": 4447,
      "Ġlists": 4448,
      "Ġlisted": 4449,
      "BaseIntgWidth": 4450,
      "Ġproduce": 4451,
      "Ġparamete": 4452,
      "ĠLogic": 4453,
      "ĠICacheECC": 4454,
      "annels": 4455,
      "Ġgreater": 4456,
      "Ġrvdffs": 4457,
      "Ġbasic": 4458,
      "Ġissued": 4459,
      "www": 4460,
      "ResetValue": 4461,
      "Ġpriority": 4462,
      "Ġpurposes": 4463,
      "Ġlocation": 4464,
      "Ġrelated": 4465,
      "Ġallocated": 4466,
      "Ġpropag": 4467,
      "Ġprogrammable": 4468,
      "Ġcomplexity": 4469,
      "NoFpgaBufG": 4470,
      "Ġkeep": 4471,
      "Ġpolynomial": 4472,
      "Ġbinary": 4473,
      "Ġemploy": 4474,
      "Ġindependent": 4475,
      "Ġfrequently": 4476,
      "Ġalgorithm": 4477,
      "Ġoriginal": 4478,
      "OPTIM": 4479,
      "WdrAw": 4480,
      "Ġneither": 4481,
      "ĠCounter": 4482,
      "Ġillustrates": 4483,
      "CHANN": 4484,
      "MpRegions": 4485,
      "RndCnst": 4486,
      "eremony": 4487,
      "Ġrepository": 4488,
      "Ġhaving": 4489,
      "NumWkups": 4490,
      "INDEX": 4491,
      "CHANNEL": 4492,
      "\"),": 4493,
      "132": 4494,
      "1000": 4495,
      "255": 4496,
      "30": 4497,
      "348": 4498,
      "671": 4499,
      "624": 4500,
      "932": 4501,
      "After": 4502,
      "BH": 4503,
      "BUS": 4504,
      "Cmd": 4505,
      "Dif": 4506,
      "DPI": 4507,
      "Disable": 4508,
      "DAA": 4509,
      "FPGA": 4510,
      "Gpio": 4511,
      "GCME": 4512,
      "KUP": 4513,
      "LA": 4514,
      "LF": 4515,
      "LER": 4516,
      "LFSR": 4517,
      "Min": 4518,
      "MioPads": 4519,
      "Norm": 4520,
      "OX": 4521,
      "Off": 4522,
      "ODE": 4523,
      "Pr": 4524,
      "Pkt": 4525,
      "PING": 4526,
      "Ram": 4527,
      "Rand": 4528,
      "RMGR": 4529,
      "RngBusWidth": 4530,
      "SS": 4531,
      "UNT": 4532,
      "We": 4533,
      "Xor": 4534,
      "XNOR": 4535,
      "_*": 4536,
      "au": 4537,
      "aded": 4538,
      "bing": 4539,
      "cq": 4540,
      "cKeymgrDiv": 4541,
      "casc": 4542,
      "den": 4543,
      "dout": 4544,
      "dge": 4545,
      "digest": 4546,
      "dicated": 4547,
      "fin": 4548,
      "fuses": 4549,
      "front": 4550,
      "hf": 4551,
      "hdr": 4552,
      "iVal": 4553,
      "ients": 4554,
      "ken": 4555,
      "lW": 4556,
      "lic": 4557,
      "lib": 4558,
      "mware": 4559,
      "num": 4560,
      "nable": 4561,
      "new": 4562,
      "name": 4563,
      "oth": 4564,
      "other": 4565,
      "pid": 4566,
      "parity": 4567,
      "pins": 4568,
      "ration": 4569,
      "rate": 4570,
      "rand": 4571,
      "rail": 4572,
      "sif": 4573,
      "sense": 4574,
      "sformat": 4575,
      "target": 4576,
      "uit": 4577,
      "warl": 4578,
      "watermark": 4579,
      "xed": 4580,
      "xWidth": 4581,
      "xnor": 4582,
      "xoshiro": 4583,
      "})": 4584,
      "Ġet": 4585,
      "ĠKe": 4586,
      "Ġ++": 4587,
      "Ġzero": 4588,
      "ĠâĶĤ": 4589,
      "inator": 4590,
      "Ġtre": 4591,
      "Ġtell": 4592,
      "stored": 4593,
      "sthrough": 4594,
      "Ġamo": 4595,
      "Ġpg": 4596,
      "Ġpop": 4597,
      "Ġppc": 4598,
      "Ġpredict": 4599,
      "atform": 4600,
      "orld": 4601,
      "ensing": 4602,
      "ics": 4603,
      "ictly": 4604,
      "leg": 4605,
      "leaf": 4606,
      "onacc": 4607,
      "Ġcrit": 4608,
      "Ġcapture": 4609,
      "imode": 4610,
      "det": 4611,
      "design": 4612,
      "debounce": 4613,
      "Ġour": 4614,
      "Ġsur": 4615,
      "Ġbk": 4616,
      "Ġbranch": 4617,
      "ampl": 4618,
      "alth": 4619,
      "Ġ//////////////////////////////////////////////////": 4620,
      "eturn": 4621,
      "etho": 4622,
      "-----|": 4623,
      "duce": 4624,
      "duplex": 4625,
      "Ġ(/": 4626,
      "Ġfam": 4627,
      "Ġfram": 4628,
      "Ġfinal": 4629,
      "Ġfinally": 4630,
      "assthrough": 4631,
      "iss": 4632,
      "isites": 4633,
      "Ġds": 4634,
      "Ġdst": 4635,
      "Ġdow": 4636,
      "Ġdistr": 4637,
      "ĠĠĠĠĠĠĠĠĠĠĠĠĠĠĠĠčĊ": 4638,
      "ĠĠĠĠĠĠĠĠĠĠĠĠĠĠĠĠĠĠĠĠĠĠĠĠĠĠĠĠĠĠĠ": 4639,
      "ionSel": 4640,
      "Ġru": 4641,
      "Ġrisc": 4642,
      "Ġright": 4643,
      "ings": 4644,
      "Ġparameterized": 4645,
      "Ġoutpu": 4646,
      "Ġtopo": 4647,
      "igit": 4648,
      "cket": 4649,
      "ifec": 4650,
      "ifier": 4651,
      "ertions": 4652,
      "Ġref": 4653,
      "Ġimp": 4654,
      "thon": 4655,
      "threshold": 4656,
      "Ġug": 4657,
      "Ġupon": 4658,
      "acing": 4659,
      "-----------": 4660,
      "005": 4661,
      "Ġmi": 4662,
      "Ġmuch": 4663,
      "Ġmight": 4664,
      "Ġmaster": 4665,
      "Ġmark": 4666,
      "Ġ11": 4667,
      "Ġ15": 4668,
      "ĠSpecif": 4669,
      "ĠSection": 4670,
      "ĠSkewCycles": 4671,
      "ĠSEC": 4672,
      "ĠTh": 4673,
      "ĠTable": 4674,
      "ĠTPM": 4675,
      "ĠTurn": 4676,
      "ĠTrust": 4677,
      "ĠCycles": 4678,
      "Ġiso": 4679,
      "ĠDual": 4680,
      "ĠDomain": 4681,
      "ĠDbg": 4682,
      "ĠDarjeeling": 4683,
      "ĠDATA": 4684,
      "estion": 4685,
      "Ġdatapath": 4686,
      "Ġdecl": 4687,
      "Ġdevices": 4688,
      "Ġdedicated": 4689,
      "ĠRST": 4690,
      "ĠRTL": 4691,
      "ĠRAL": 4692,
      "ilities": 4693,
      "semb": 4694,
      "Ġasync": 4695,
      "verified": 4696,
      "ĠPIN": 4697,
      "ĠPulse": 4698,
      "ĠPlatform": 4699,
      "ĠOR": 4700,
      "ĠOb": 4701,
      "ĠOwner": 4702,
      "Ġconvert": 4703,
      "ement": 4704,
      "using": 4705,
      "ocd": 4706,
      "NumS": 4707,
      "NumTarget": 4708,
      "Ġlike": 4709,
      "plied": 4710,
      "platform": 4711,
      "ĠEarl": 4712,
      "ĠELF": 4713,
      "urs": 4714,
      "urate": 4715,
      "urning": 4716,
      "Ġencodes": 4717,
      "claim": 4718,
      "valu": 4719,
      "calation": 4720,
      "ĠBuild": 4721,
      "ĠBazel": 4722,
      "ĠBSS": 4723,
      "Ġ2048": 4724,
      "pecial": 4725,
      "uffixes": 4726,
      "ĠMacro": 4727,
      "ĠMargin": 4728,
      "cored": 4729,
      "reqs": 4730,
      "ĠHjson": 4731,
      "izable": 4732,
      "ĠFuseSoC": 4733,
      "Ġcoming": 4734,
      "ADOW": 4735,
      "ialSeed": 4736,
      "Ġlocalpar": 4737,
      "Ġanother": 4738,
      "Ġget": 4739,
      "Ġgives": 4740,
      "319": 4741,
      "tracer": 4742,
      "testbenches": 4743,
      "ĠNot": 4744,
      "ĠNative": 4745,
      "ĠInWidth": 4746,
      "crmb": 4747,
      "Ġadded": 4748,
      "Ġeff": 4749,
      "rollW": 4750,
      "lcmgr": 4751,
      "ĠLC": 4752,
      "ĠLfsr": 4753,
      "ĠGE": 4754,
      "agesPer": 4755,
      "IndexW": 4756,
      "ework": 4757,
      "ĠĠĠĠĠĠĠĠĠĠĠčĊ": 4758,
      "Ġ4096": 4759,
      "Ġexp": 4760,
      "Ġexu": 4761,
      "Ġexcept": 4762,
      "Ġshown": 4763,
      "axi": 4764,
      "plementing": 4765,
      "Ġsever": 4766,
      "ĠUsed": 4767,
      "Ġgeneral": 4768,
      "Ġinstances": 4769,
      "Ġchain": 4770,
      "Ġchunk": 4771,
      "ĠĠĠĠĠĠĠĠĠĠĠĠĠĠĠčĊ": 4772,
      "Ġcontrolled": 4773,
      "Ġmultdiv": 4774,
      "Ġtransm": 4775,
      "Ġvld": 4776,
      "Ġvery": 4777,
      "ustom": 4778,
      "ĠReference": 4779,
      "cfgs": 4780,
      "irmware": 4781,
      "(\"%": 4782,
      "Ġcommit": 4783,
      "posed": 4784,
      "00000000000000": 4785,
      "nstream": 4786,
      "Ġdetailed": 4787,
      "202": 4788,
      "2078": 4789,
      "202473": 4790,
      "711": 4791,
      "CCM": 4792,
      "Ġmanual": 4793,
      "Ġmanufact": 4794,
      "dology": 4795,
      "ĠRegionSel": 4796,
      "ailbox": 4797,
      "Ġdefine": 4798,
      "Ġsecret": 4799,
      "Ġdump": 4800,
      "Ġduration": 4801,
      "owner": 4802,
      "weight": 4803,
      "ĠIfName": 4804,
      "Ġqs": 4805,
      "State": 4806,
      "Start": 4807,
      "Ġstarts": 4808,
      "Ġident": 4809,
      "Ġcontaining": 4810,
      "Ġacknow": 4811,
      "ĠRndCnstAddr": 4812,
      "ĠRndCnstData": 4813,
      "ĠRndCnstAll": 4814,
      "ĠRndCnstDigest": 4815,
      "Inter": 4816,
      "Ġshaf": 4817,
      "AllPages": 4818,
      "COUNT": 4819,
      "masking": 4820,
      "Ġarbiter": 4821,
      "Ġupdates": 4822,
      "DEEE": 4823,
      "Ġpartial": 4824,
      "ACA": 4825,
      "ĠProtocol": 4826,
      "ĠOneHotWidth": 4827,
      "priv": 4828,
      "priate": 4829,
      "Idle": 4830,
      "Ġdesired": 4831,
      "crypto": 4832,
      "jedec": 4833,
      "ledge": 4834,
      "ALU": 4835,
      "ĠCurrently": 4836,
      "ibraries": 4837,
      "SecVolatileRawUnlockEn": 4838,
      "ĠSystemVerilog": 4839,
      "ĠAESGCME": 4840,
      "ĠOutputZero": 4841,
      "Ġchanges": 4842,
      "PROLEAD": 4843,
      "Ġdriving": 4844,
      "Ġmodels": 4845,
      "Ġtemplates": 4846,
      "ightweight": 4847,
      "Ġspecifications": 4848,
      "Output": 4849,
      "Ġyet": 4850,
      "CDB": 4851,
      "enables": 4852,
      "ĠĠĠĠĠĠĠĠĠĠĠĠĠĠĠĠĠĠĠĠĠĠĠĠĠĠĠĠĠĠĠĠĠĠĠĠĠĠĠĠĠĠĠĠĠĠĠĠĠĠĠĠĠĠĠĠĠĠĠĠĠĠĠĠĠĠĠĠĠĠĠĠĠĠĠĠĠĠĠĠĠĠĠĠĠĠĠĠĠĠĠĠĠĠĠĠĠĠĠĠĠĠĠĠĠĠĠĠĠĠĠĠĠĠĠĠĠĠĠĠĠĠĠĠĠĠĠĠ": 4853,
      "crambleEn": 4854,
      "SramAw": 4855,
      "Ġcombinator": 4856,
      "timeunit": 4857,
      "HAND": 4858,
      "PMPEnable": 4859,
      "PMPNumRegions": 4860,
      "PMPGranularity": 4861,
      "InfoTypes": 4862,
      "InfosPerBank": 4863,
      "TargetALU": 4864,
      "Ġallows": 4865,
      "Straps": 4866,
      "ĠIdcode": 4867,
      "LOCK": 4868,
      "Ġredund": 4869,
      "Ġreduced": 4870,
      "ĠLFSRs": 4871,
      "ĠTopology": 4872,
      "ĠPartialSeed": 4873,
      "ĠNoFpgaGate": 4874,
      "Ġarbitration": 4875,
      "Ġbackdoor": 4876,
      "controller": 4877,
      "Ġdependencies": 4878,
      "Ġabout": 4879,
      "Ġcreates": 4880,
      "ĠEnSecBuf": 4881,
      "Ġfields": 4882,
      "Ġposition": 4883,
      "USED": 4884,
      "DataIntgCheck": 4885,
      "xxxxxxxx": 4886,
      "Ġtransactions": 4887,
      "Software": 4888,
      "series": 4889,
      "Ġsending": 4890,
      "ĠSequ": 4891,
      "request": 4892,
      "00000000000000000": 4893,
      "AsHw": 4894,
      "parse": 4895,
      "ĠPWRMGR": 4896,
      "ĠGenerate": 4897,
      "Ġrequires": 4898,
      "Ġmodify": 4899,
      "IONS": 4900,
      "44388": 4901,
      "RomCtrl": 4902,
      "Ġindex": 4903,
      "wakeup": 4904,
      "monitor": 4905,
      "Ġindication": 4906,
      "Ġbasically": 4907,
      "accu": 4908,
      "ĠAscon": 4909,
      "Ġseeds": 4910,
      "Ġcrossbar": 4911,
      "Ġstopped": 4912,
      "Ġconsumer": 4913,
      "Ġreturn": 4914,
      "Ġpropert": 4915,
      "ĠInstDepth": 4916,
      "SHADOW": 4917,
      "wiki": 4918,
      "wikiped": 4919,
      "Ġ//////////////": 4920,
      "ĠBranchTargetALU": 4921,
      "ĠGpioGpio": 4922,
      "Ġsequencing": 4923,
      "ĠRndCnstLfsrSeedDefault": 4924,
      "ĠCfgSramAddrWidth": 4925,
      "ĠCfgSramDataWidth": 4926,
      "Ġcertific": 4927,
      "ĠDFT": 4928,
      "Ġcompile": 4929,
      "ĠIdentifier": 4930,
      "pressed": 4931,
      "ĠTaget": 4932,
      "Ġresponsible": 4933,
      "Ġappropriate": 4934,
      "5400000000000000": 4935,
      "OLD": 4936,
      "REGIONS": 4937,
      "ĠSecScrambleEn": 4938,
      "Ġaccordingly": 4939,
      "desired": 4940,
      "allel": 4941,
      "----+----+": 4942,
      "Ġdivide": 4943,
      "ĠScrambler": 4944,
      "ĠALERT": 4945,
      "ĠPython": 4946,
      "ĠPath": 4947,
      "Ġlimit": 4948,
      "ĠEscalation": 4949,
      "ĠMultimode": 4950,
      "ĠFibonacc": 4951,
      "Ġirq": 4952,
      "ĠUNUSED": 4953,
      "CoreD": 4954,
      "Ġcomparis": 4955,
      "EYMGR": 4956,
      "Ġedges": 4957,
      "ĠBasically": 4958,
      "OPTIMIZE": 4959,
      "CHANNELS": 4960,
      "1323": 4961,
      "93244": 4962,
      "BHT": 4963,
      "Diff": 4964,
      "DAAA": 4965,
      "PktSizeByte": 4966,
      "aud": 4967,
      "cqFifoDepth": 4968,
      "cascading": 4969,
      "sformatf": 4970,
      "Ġamount": 4971,
      "Ġcritical": 4972,
      "ampling": 4973,
      "Ġdownstream": 4974,
      "Ġdistribut": 4975,
      "Ġriscv": 4976,
      "Ġtopology": 4977,
      "ifecycle": 4978,
      "Ġmarked": 4979,
      "ĠSpecify": 4980,
      "Ġdeclare": 4981,
      "ĠRSTMGR": 4982,
      "ĠPINMUX": 4983,
      "crmbl": 4984,
      "207842": 4985,
      "ĠRndCnstAllSeeds": 4986,
      "ĠRndCnstDigestConst": 4987,
      "AllPagesW": 4988,
      "ĠAESGCMEnable": 4989,
      "ĠOutputZeroIf": 4990,
      "Ġcombinatorial": 4991,
      "HANDLER": 4992,
      "StrapsEn": 4993,
      "ĠPartialSeedWidth": 4994,
      "AsHwStrapsEn": 4995,
      "4438884": 4996,
      "wikipedia": 4997,
      "ĠMultimodeEn": 4998,
      "ĠFibonacci": 4999,
      "'d": 5000,
      ")::": 5001,
      "*\",": 5002,
      "58": 5003,
      "59": 5004,
      ":---------|---------:": 5005,
      "AG": 5006,
      "AI": 5007,
      "ANG": 5008,
      "CR": 5009,
      "CY": 5010,
      "CSR": 5011,
      "Clear": 5012,
      "CFG": 5013,
      "DI": 5014,
      "Entropy": 5015,
      "Full": 5016,
      "Further": 5017,
      "IG": 5018,
      "Is": 5019,
      "ImemAddrWidth": 5020,
      "KHz": 5021,
      "MIO": 5022,
      "OG": 5023,
      "Offset": 5024,
      "Optionally": 5025,
      "Po": 5026,
      "PER": 5027,
      "RND": 5028,
      "RANG": 5029,
      "SV": 5030,
      "SPI": 5031,
      "Share": 5032,
      "Scrambling": 5033,
      "Tim": 5034,
      "USB": 5035,
      "WKUP": 5036,
      "\\_": 5037,
      "ai": 5038,
      "bW": 5039,
      "bed": 5040,
      "bazel": 5041,
      "bang": 5042,
      "cio": 5043,
      "current": 5044,
      "cache": 5045,
      "clear": 5046,
      "dio": 5047,
      "function": 5048,
      "final": 5049,
      "gory": 5050,
      "hich": 5051,
      "hysical": 5052,
      "halt": 5053,
      "lit": 5054,
      "lates": 5055,
      "me": 5056,
      "man": 5057,
      "mult": 5058,
      "mubis": 5059,
      "neg": 5060,
      "null": 5061,
      "od": 5062,
      "of": 5063,
      "pub": 5064,
      "pret": 5065,
      "pare": 5066,
      "ric": 5067,
      "rnd": 5068,
      "ries": 5069,
      "rready": 5070,
      "sP": 5071,
      "such": 5072,
      "sider": 5073,
      "tions": 5074,
      "vio": 5075,
      "width": 5076,
      "work": 5077,
      "xil": 5078,
      "xilinx": 5079,
      "|---------------|": 5080,
      "ĠY": 5081,
      "Ġgr": 5082,
      "inverse": 5083,
      "ĠĠĠĠĠĠĠĠčĊ": 5084,
      "Ġinp": 5085,
      "Ġincr": 5086,
      "Ġtied": 5087,
      "ref": 5088,
      "reat": 5089,
      "redu": 5090,
      "recov": 5091,
      "Ġarr": 5092,
      "Ġpok": 5093,
      "Ġpress": 5094,
      "Ġpolicy": 5095,
      "Ġpush": 5096,
      "icro": 5097,
      "icients": 5098,
      "lea": 5099,
      "lean": 5100,
      "Ġcs": 5101,
      "Ġcar": 5102,
      "Ġcause": 5103,
      "Ġcare": 5104,
      "arily": 5105,
      "decoder": 5106,
      "detect": 5107,
      "Ġoverr": 5108,
      "Ġodd": 5109,
      "Ġsif": 5110,
      "Ġsumm": 5111,
      "Ġsizes": 5112,
      "Ġsensing": 5113,
      "Ġbak": 5114,
      "Ġbazel": 5115,
      "Ġlogically": 5116,
      "Ġ//////////////////////////////////": 5117,
      "-----": 5118,
      "mote": 5119,
      "Ġ(\"": 5120,
      "Ġ();": 5121,
      "Ġfurther": 5122,
      "Ġfront": 5123,
      "anc": 5124,
      "analog": 5125,
      "ished": 5126,
      "Ġdmem": 5127,
      "Ġderiv": 5128,
      "lkPeriod": 5129,
      "Ġratio": 5130,
      "Ġ..": 5131,
      "role": 5132,
      "robe": 5133,
      "roduction": 5134,
      "Ġoutl": 5135,
      "ifter": 5136,
      "Ġwas": 5137,
      "Ġway": 5138,
      "Ġworld": 5139,
      "idden": 5140,
      "Ġimage": 5141,
      "Ġimbx": 5142,
      "through": 5143,
      "ulate": 5144,
      "ecut": 5145,
      "Ġprimarily": 5146,
      "aces": 5147,
      "Ġma": 5148,
      "Ġmaxim": 5149,
      "ĠIm": 5150,
      "ĠImemAddrWidth": 5151,
      "ĠImemSizeByte": 5152,
      "Ġ100": 5153,
      "ĠSensor": 5154,
      "ĠSIM": 5155,
      "ĠScope": 5156,
      "ĠSkip": 5157,
      "ĠSerial": 5158,
      "ĠSiVal": 5159,
      "Ġbeha": 5160,
      "ĠTH": 5161,
      "ĠTBD": 5162,
      "ĠTerm": 5163,
      "ĠTAG": 5164,
      "Ġforward": 5165,
      "ĠCor": 5166,
      "ĠCycle": 5167,
      "ĠCTRL": 5168,
      "ĠCreator": 5169,
      "ĠCrypto": 5170,
      "ĠCFG": 5171,
      "ĠCeremony": 5172,
      "ĠClkPeriod": 5173,
      "ĠDP": 5174,
      "ĠDep": 5175,
      "ĠDown": 5176,
      "ĠDMI": 5177,
      "Ġdeep": 5178,
      "Ġdecodes": 5179,
      "Ġalready": 5180,
      "Ġthings": 5181,
      "ĠRW": 5182,
      "ĠRNG": 5183,
      "ĠRngBusBitSelWidth": 5184,
      "abs": 5185,
      "Ġhal": 5186,
      "Ġhard": 5187,
      "Ġhandler": 5188,
      "Ġbitstream": 5189,
      "ips": 5190,
      "ending": 5191,
      "verilator": 5192,
      "ableHarts": 5193,
      "ĠAD": 5194,
      "ĠAND": 5195,
      "ĠAccess": 5196,
      "ĠPlease": 5197,
      "ibility": 5198,
      "Ġnever": 5199,
      "Ġnative": 5200,
      "Ġstill": 5201,
      "Ġstorage": 5202,
      "user": 5203,
      "NumMubis": 5204,
      "Ġlar": 5205,
      "ategory": 5206,
      "Ġunlock": 5207,
      "ĠEach": 5208,
      "Ġenh": 5209,
      "Ġenum": 5210,
      "Ġenabling": 5211,
      "Ġbypass": 5212,
      "Ġ\"*\",": 5213,
      "caler": 5214,
      "ĠBUS": 5215,
      "Ġ24": 5216,
      "ĠMubi": 5217,
      "ĠMust": 5218,
      "Ġreserved": 5219,
      "vide": 5220,
      "ĠHSM": 5221,
      "Ġregs": 5222,
      "intf": 5223,
      "ints": 5224,
      "interface": 5225,
      "ĠFI": 5226,
      "ĠFunction": 5227,
      "ĠFieldEnVal": 5228,
      "ĠIntegrated": 5229,
      "acks": 5230,
      "ĠĠĠĠĠĠĠĠĠĠĠĠĠĠĠĠĠĠĠĠĠĠĠĠĠĠĠĠĠĠĠĠĠĠĠĠĠĠĠ": 5231,
      "ĠĠĠĠĠĠĠĠĠĠĠĠĠĠĠĠĠĠĠĠĠĠĠĠĠĠĠĠĠĠĠĠĠĠĠĠĠĠĠĠĠĠĠĠĠĠĠĠĠ": 5232,
      "ADC": 5233,
      "pile": 5234,
      "comportable": 5235,
      "compliance": 5236,
      "Ġanalog": 5237,
      "Ġgiven": 5238,
      "Ġglit": 5239,
      "ĠWO": 5240,
      "ĠWakeup": 5241,
      "310": 5242,
      "true": 5243,
      "trace": 5244,
      "ĠVH": 5245,
      "ĠNrHarts": 5246,
      "perim": 5247,
      "periph": 5248,
      "generic": 5249,
      "amma": 5250,
      "ĠePMP": 5251,
      "bitbang": 5252,
      "docs": 5253,
      "Ġwires": 5254,
      "ASK": 5255,
      "strb": 5256,
      "ĠNumRound": 5257,
      "InWidth": 5258,
      "ĠEnableAlert": 5259,
      "Ġtoolchain": 5260,
      "protocol": 5261,
      "Ġexisting": 5262,
      "ĠDefin": 5263,
      "Ġoption": 5264,
      "Ġoptions": 5265,
      "ĠURND": 5266,
      "Ġgenerating": 5267,
      "ĠĠĠĠĠĠĠĠĠĠĠĠĠĠĠĠĠĠĠčĊ": 5268,
      "017": 5269,
      "Adc": 5270,
      "Address": 5271,
      "ayload": 5272,
      "ULP": 5273,
      "ENAB": 5274,
      "ENDP": 5275,
      "Ġacmd": 5276,
      "Ġaccount": 5277,
      "Ġtransition": 5278,
      "Ġtranslates": 5279,
      "Ġvendor": 5280,
      "Ġadders": 5281,
      "Ġ800": 5282,
      "ĠRequ": 5283,
      "ĠRespon": 5284,
      "ATION": 5285,
      "TRST": 5286,
      "ĠStack": 5287,
      "ĠStyle": 5288,
      "ĠSecRomCtrl": 5289,
      "IFT": 5290,
      "ĠConsider": 5291,
      "everities": 5292,
      "Ġsynchronous": 5293,
      "colum": 5294,
      "EndPo": 5295,
      "Ġrefers": 5296,
      "Ġpacked": 5297,
      "Ġpacking": 5298,
      "Ġmoment": 5299,
      "ĠRegions": 5300,
      "Ġguidelines": 5301,
      "Ġwrap": 5302,
      "Ġdefin": 5303,
      "Ġutilizes": 5304,
      "Ġinitialized": 5305,
      "Ġbox": 5306,
      "ĠRndW": 5307,
      "Ġduplex": 5308,
      "Ġinterpret": 5309,
      "achine": 5310,
      "ĠIOs": 5311,
      "IOD": 5312,
      "olicies": 5313,
      "Ġpadring": 5314,
      "Ġspeed": 5315,
      "Ġshares": 5316,
      "commit": 5317,
      "ĠXNOR": 5318,
      "Ġparts": 5319,
      "Ġpartitions": 5320,
      "Ġciph": 5321,
      "Ġupper": 5322,
      "ĠPads": 5323,
      "ĠCommon": 5324,
      "ĠCompile": 5325,
      "prng": 5326,
      "Ġcounters": 5327,
      "Ġswit": 5328,
      "Ġserved": 5329,
      "Secure": 5330,
      "Ġtriggers": 5331,
      "ĠKmac": 5332,
      "ĠKEYMGR": 5333,
      "ĠChannels": 5334,
      "Ġchanging": 5335,
      "Ġdriver": 5336,
      "LfsrWidth": 5337,
      "Ġrden": 5338,
      "actions": 5339,
      "108": 5340,
      "OutWidth": 5341,
      "Ġyour": 5342,
      "Ġinvoke": 5343,
      "ĠCSRs": 5344,
      "Ġoperate": 5345,
      "Ġaccesses": 5346,
      "Ġaccessible": 5347,
      "CountWidth": 5348,
      "SramDw": 5349,
      "rypt": 5350,
      "Ġphases": 5351,
      "Role": 5352,
      "StrbW": 5353,
      "ĠAlma": 5354,
      "Ġensures": 5355,
      "configure": 5356,
      "-------------|:---------|---------:|:----------------------------------------------------------------": 5357,
      "Ġpwrb": 5358,
      "Ġmuxed": 5359,
      "ĠNumCS": 5360,
      "Ġcorrespon": 5361,
      "00000001": 5362,
      "TEC": 5363,
      "Ġhashing": 5364,
      "Ġcryptography": 5365,
      "Ġnetwork": 5366,
      "NumCS": 5367,
      "Ġcreate": 5368,
      "transpose": 5369,
      "located": 5370,
      "Ġentries": 5371,
      "Ġgoal": 5372,
      "Ġgoing": 5373,
      "Ġmechanisms": 5374,
      "mix": 5375,
      "ĠINSTR": 5376,
      "ĠSignal": 5377,
      "ĠScanRole": 5378,
      "Ġsends": 5379,
      "Ġremaining": 5380,
      "Ġgreat": 5381,
      "Ġmodification": 5382,
      "Ġranges": 5383,
      "Ġissues": 5384,
      "Ġchannels": 5385,
      "Ġquestion": 5386,
      "stepOffset": 5387,
      "Ġlocked": 5388,
      "ĠENV": 5389,
      "ĠBidirectional": 5390,
      "Ġexecute": 5391,
      "MsgWidth": 5392,
      "MsgStrbW": 5393,
      "Ġpurpose": 5394,
      "Ġflows": 5395,
      "Ġpointers": 5396,
      "Ġmatches": 5397,
      "Ġcomputation": 5398,
      "Ġprogrammed": 5399,
      "Ġelements": 5400,
      "TriggerSV": 5401,
      "ĠSelectableHarts": 5402,
      "DCCM": 5403,
      "Ġcertain": 5404,
      "ascale": 5405,
      "Ġthresholds": 5406,
      "Ġengineer": 5407,
      "response": 5408,
      "Ġcompiled": 5409,
      "ĠUseful": 5410,
      "ĠSwAccessRW": 5411,
      "Alma": 5412,
      "Clks": 5413,
      "Ġbecome": 5414,
      "Ġbecomes": 5415,
      "Ġconditions": 5416,
      "Ġcondition": 5417,
      "ĠEscPing": 5418,
      "ĠEscNumS": 5419,
      "ĠNoScan": 5420,
      "Ġincrement": 5421,
      "efficients": 5422,
      "Ġauthent": 5423,
      "Ġcircuit": 5424,
      "entially": 5425,
      "interrupts": 5426,
      "ĠInvoke": 5427,
      "processor": 5428,
      "ĠAddrWidth": 5429,
      "Ġschedule": 5430,
      "VALID": 5431,
      "Ġbidirectional": 5432,
      "Ġdffs": 5433,
      "openocd": 5434,
      "----------------------------|---------------|": 5435,
      "ĠEnableRspDataIntgCheck": 5436,
      "ĠLockstepOffset": 5437,
      "DIFs": 5438,
      "overflow": 5439,
      "âĢĻ": 5440,
      "ĠAssertions": 5441,
      "celerator": 5442,
      "Ġregistry": 5443,
      "REQS": 5444,
      "Ġchoose": 5445,
      "Ġpropagation": 5446,
      "DisableScrambling": 5447,
      "Ġetc": 5448,
      "Ġframework": 5449,
      "sembly": 5450,
      "Ġseveral": 5451,
      "LOCKED": 5452,
      "ĠSequence": 5453,
      "PERIOD": 5454,
      "RANGE": 5455,
      "Ġoverridden": 5456,
      "Ġbaked": 5457,
      "Ġderivation": 5458,
      "Ġmaximal": 5459,
      "Ġbehavio": 5460,
      "Ġforwarding": 5461,
      "ĠEnableAlertTriggerSV": 5462,
      "ENDPO": 5463,
      "ĠResponse": 5464,
      "EndPoints": 5465,
      "Ġinterpreted": 5466,
      "ĠEscPingCountWidth": 5467,
      "ĠEscNumSeverities": 5468,
      "ĠEnableAlertTriggerSVA": 5469,
      "$$": 5470,
      "(~": 5471,
      "*(": 5472,
      "+----------": 5473,
      "+-----------": 5474,
      "-+-----------": 5475,
      "/).": 5476,
      "057": 5477,
      "180": 5478,
      "201": 5479,
      "43": 5480,
      "407": 5481,
      "60": 5482,
      "61": 5483,
      "62": 5484,
      "74": 5485,
      "7714": 5486,
      "86": 5487,
      "88": 5488,
      "850": 5489,
      "9108": 5490,
      ";<": 5491,
      "=\"": 5492,
      ">,": 5493,
      "An": 5494,
      "BB": 5495,
      "BG": 5496,
      "Be": 5497,
      "Bid": 5498,
      "Based": 5499,
      "Build": 5500,
      "Blocks": 5501,
      "BOOT": 5502,
      "CI": 5503,
      "CL": 5504,
      "Cal": 5505,
      "Cycle": 5506,
      "Cdc": 5507,
      "Crash": 5508,
      "CHE": 5509,
      "Cra": 5510,
      "CsKeymgrDiv": 5511,
      "CtrWidth": 5512,
      "DM": 5513,
      "Do": 5514,
      "Due": 5515,
      "DST": 5516,
      "DMA": 5517,
      "DIO": 5518,
      "Emp": 5519,
      "ECO": 5520,
      "FBD": 5521,
      "FilterStages": 5522,
      "False": 5523,
      "GH": 5524,
      "GER": 5525,
      "GAL": 5526,
      "Hs": 5527,
      "High": 5528,
      "HasScanMode": 5529,
      "Io": 5530,
      "Ind": 5531,
      "IME": 5532,
      "IMP": 5533,
      "IOR": 5534,
      "IMEM": 5535,
      "ImemSizeByte": 5536,
      "Jitter": 5537,
      "KE": 5538,
      "LS": 5539,
      "Lut": 5540,
      "Low": 5541,
      "Lpg": 5542,
      "Level": 5543,
      "MBus": 5544,
      "Module": 5545,
      "MODE": 5546,
      "Non": 5547,
      "NMioPads": 5548,
      "NLpg": 5549,
      "OD": 5550,
      "Op": 5551,
      "Otbn": 5552,
      "PC": 5553,
      "Prim": 5554,
      "Page": 5555,
      "Pinmux": 5556,
      "Pmp": 5557,
      "POK": 5558,
      "RO": 5559,
      "RU": 5560,
      "Rz": 5561,
      "RNG": 5562,
      "RdWidth": 5563,
      "Sim": 5564,
      "SIM": 5565,
      "Scrmbl": 5566,
      "TM": 5567,
      "TGEN": 5568,
      "TCK": 5569,
      "TxWidth": 5570,
      "TIME": 5571,
      "Upd": 5572,
      "Wake": 5573,
      "ZC": 5574,
      "]}": 5575,
      "aight": 5576,
      "after": 5577,
      "aoff": 5578,
      "aZc": 5579,
      "bu": 5580,
      "by": 5581,
      "band": 5582,
      "bZc": 5583,
      "blank": 5584,
      "baud": 5585,
      "cpp": 5586,
      "clean": 5587,
      "eout": 5588,
      "eak": 5589,
      "eans": 5590,
      "fib": 5591,
      "fCnt": 5592,
      "gi": 5593,
      "gated": 5594,
      "gamma": 5595,
      "hF": 5596,
      "hint": 5597,
      "ian": 5598,
      "iation": 5599,
      "irl": 5600,
      "ided": 5601,
      "iant": 5602,
      "iRo": 5603,
      "jen": 5604,
      "lass": 5605,
      "lap": 5606,
      "lsu": 5607,
      "libraries": 5608,
      "metho": 5609,
      "non": 5610,
      "nop": 5611,
      "nection": 5612,
      "ov": 5613,
      "osys": 5614,
      "oSh": 5615,
      "pm": 5616,
      "parent": 5617,
      "policies": 5618,
      "ral": 5619,
      "rical": 5620,
      "rng": 5621,
      "raw": 5622,
      "raction": 5623,
      "sy": 5624,
      "scr": 5625,
      "sure": 5626,
      "sample": 5627,
      "sdi": 5628,
      "sda": 5629,
      "sleep": 5630,
      "ton": 5631,
      "tap": 5632,
      "uil": 5633,
      "uick": 5634,
      "vgen": 5635,
      "vmd": 5636,
      "vant": 5637,
      "void": 5638,
      "volatile": 5639,
      "wn": 5640,
      "wmask": 5641,
      "wipe": 5642,
      "which": 5643,
      "xiv": 5644,
      "zc": 5645,
      "|-------|": 5646,
      "Ġec": 5647,
      "Ġip": 5648,
      "Ġ##": 5649,
      "Ġel": 5650,
      "Ġview": 5651,
      "Ġ------------": 5652,
      "Ġess": 5653,
      "Ġ};": 5654,
      "inde": 5655,
      "inates": 5656,
      "uture": 5657,
      "utdown": 5658,
      "Ġtag": 5659,
      "Ġtap": 5660,
      "Ġtext": 5661,
      "Ġtypically": 5662,
      "pute": 5663,
      "///": 5664,
      "reference": 5665,
      "stances": 5666,
      "standing": 5667,
      "Ġaim": 5668,
      "Ġaround": 5669,
      "Ġpcl": 5670,
      "Ġpda": 5671,
      "ati": 5672,
      "aturate": 5673,
      "icate": 5674,
      "icates": 5675,
      "iction": 5676,
      "Ġcm": 5677,
      "Ġcrc": 5678,
      "Ġcustom": 5679,
      "arch": 5680,
      "arized": 5681,
      "arallel": 5682,
      "arxiv": 5683,
      "image": 5684,
      "Ġloop": 5685,
      "Ġloading": 5686,
      "Ġoh": 5687,
      "Ġombx": 5688,
      "Ġsent": 5689,
      "Ġsum": 5690,
      "Ġsreg": 5691,
      "Ġsup": 5692,
      "Ġsqu": 5693,
      "Ġsens": 5694,
      "Ġsuffixes": 5695,
      "Ġbuil": 5696,
      "alys": 5697,
      "alization": 5698,
      "alled": 5699,
      "alXor": 5700,
      "dulo": 5701,
      "Ġ(*": 5702,
      "Ġ({": 5703,
      "Ġfro": 5704,
      "Ġfive": 5705,
      "Ġfaster": 5706,
      "Ġfirmware": 5707,
      "Ġfuture": 5708,
      "isible": 5709,
      "Ġdn": 5710,
      "Ġdisc": 5711,
      "Ġra": 5712,
      "Ġrout": 5713,
      "Ġraddr": 5714,
      "Ġ.*);": 5715,
      "Ġintro": 5716,
      "Ġtoget": 5717,
      "igher": 5718,
      "igure": 5719,
      "Ġwb": 5720,
      "Ġwready": 5721,
      "Ġreal": 5722,
      "Ġrender": 5723,
      "Ġreused": 5724,
      "Ġreprogram": 5725,
      "Ġreconfigure": 5726,
      "Ġimd": 5727,
      "Ġclks": 5728,
      "Ġclkgen": 5729,
      "ulates": 5730,
      "ecmp": 5731,
      "nist": 5732,
      "001": 5733,
      "002": 5734,
      "008": 5735,
      "0056": 5736,
      "0011": 5737,
      "00366": 5738,
      "00413": 5739,
      "0067003": 5740,
      "002606": 5741,
      "00496": 5742,
      "0031234": 5743,
      "Ġmind": 5744,
      "Ġmtime": 5745,
      "Ġmiso": 5746,
      "Ġminim": 5747,
      "Ġmicro": 5748,
      "Ġmachine": 5749,
      "ĠIF": 5750,
      "ĠISA": 5751,
      "ĠIcache": 5752,
      "Ġ18": 5753,
      "ĠST": 5754,
      "ĠSCK": 5755,
      "ĠSlot": 5756,
      "ĠSynchroniz": 5757,
      "ĠSMBus": 5758,
      "Ġbest": 5759,
      "Ġbegi": 5760,
      "ĠTR": 5761,
      "ĠTr": 5762,
      "ĠTap": 5763,
      "ĠTime": 5764,
      "ĠTCP": 5765,
      "umstances": 5766,
      "ado": 5767,
      "address": 5768,
      "ĠCmd": 5769,
      "ĠClear": 5770,
      "ĠCsKeymgrDiv": 5771,
      "ĠCtrWidth": 5772,
      "ĠCreate": 5773,
      "ĠClass": 5774,
      "Ġisn": 5775,
      "ĠDC": 5776,
      "ĠDr": 5777,
      "ĠDst": 5778,
      "ĠDocument": 5779,
      "ĠDft": 5780,
      "ĠDisable": 5781,
      "ĠDSP": 5782,
      "WidthDiff": 5783,
      "ested": 5784,
      "Ġdevelop": 5785,
      "Ġdecode": 5786,
      "Ġthresh": 5787,
      "Ġthough": 5788,
      "ĠRI": 5789,
      "ĠRate": 5790,
      "ĠRsp": 5791,
      "ĠReturn": 5792,
      "clkhdr": 5793,
      "abor": 5794,
      "abilities": 5795,
      "Ġhi": 5796,
      "Ġhol": 5797,
      "Ġhart": 5798,
      "Ġhigher": 5799,
      "illeg": 5800,
      "ĠĠĠĠĠĠĠĠĠĠĠĠčĊ": 5801,
      "Ġcout": 5802,
      "Ġcopy": 5803,
      "Ġ*)": 5804,
      "tpm": 5805,
      "sely": 5806,
      "Ġasf": 5807,
      "endian": 5808,
      "ĠApp": 5809,
      "ĠACK": 5810,
      "ĠPl": 5811,
      "ĠPut": 5812,
      "ĠPing": 5813,
      "ĠPass": 5814,
      "ĠPatch": 5815,
      "ĠPseudo": 5816,
      "ĠPagesPer": 5817,
      "ĠON": 5818,
      "ĠOFF": 5819,
      "ĠOptionally": 5820,
      "chn": 5821,
      "chan": 5822,
      "ibW": 5823,
      "Ġstat": 5824,
      "Ġstay": 5825,
      "Ġstress": 5826,
      "Ġstability": 5827,
      "Ġstret": 5828,
      "Ġconstruction": 5829,
      "Ġconven": 5830,
      "Ġconnection": 5831,
      "ceed": 5832,
      "ols": 5833,
      "ocum": 5834,
      "NumRound": 5835,
      "NumAdc": 5836,
      "opy": 5837,
      "Ġ``": 5838,
      "unmasked": 5839,
      "unhardened": 5840,
      "Ġlane": 5841,
      "Ġlanding": 5842,
      "Ġundesired": 5843,
      "secret": 5844,
      "Ġ&&": 5845,
      "pll": 5846,
      "plished": 5847,
      "ural": 5848,
      "urpose": 5849,
      "Ġenough": 5850,
      "Ġ\"\"": 5851,
      "ĠBig": 5852,
      "ĠBuf": 5853,
      "ĠBecause": 5854,
      "ĠBoth": 5855,
      "Ġ20": 5856,
      "Ġ25": 5857,
      "Ġ27": 5858,
      "irements": 5859,
      "ĠMAC": 5860,
      "ĠMeans": 5861,
      "Ġusually": 5862,
      "reqack": 5863,
      "ĠHandler": 5864,
      "ĠHRW": 5865,
      "ĠHasScanMode": 5866,
      "Ġregular": 5867,
      "ĠFast": 5868,
      "ĠFIP": 5869,
      "ĠFLASH": 5870,
      "ĠFifoDepth": 5871,
      "driven": 5872,
      "Ġsignific": 5873,
      "ĠĠĠĠĠĠĠĠĠĠĠĠĠĠĠĠĠĠĠĠĠĠĠĠĠĠĠĠĠĠĠĠĠĠĠĠĠĠ": 5874,
      "ĠĠĠĠĠĠĠĠĠĠĠĠĠĠĠĠĠĠĠĠĠĠĠĠĠĠĠĠĠĠĠĠĠĠĠĠĠĠĠĠĠĠĠĠĠĠĠĠĠĠ": 5875,
      "ĠĠĠĠĠĠĠĠĠĠĠĠĠĠĠĠĠĠĠĠĠĠĠĠĠĠĠĠĠĠĠĠĠĠĠĠĠĠĠĠĠĠĠ": 5876,
      "ĠĠĠĠĠĠĠĠĠĠĠĠĠĠĠĠĠĠĠĠĠĠĠĠĠĠĠĠĠĠĠĠĠĠĠĠĠĠĠĠĠĠĠĠĠĠĠĠĠĠĠĠĠĠĠ": 5877,
      "ĠĠĠĠĠĠĠĠĠĠĠĠĠĠĠĠĠĠĠĠĠĠĠĠĠĠĠĠĠĠĠĠĠĠĠĠĠĠĠĠĠĠĠĠĠĠĠĠĠĠĠĠĠĠĠĠĠ": 5878,
      "ĠĠĠĠĠĠĠĠĠĠĠĠĠĠĠĠĠĠĠĠĠĠĠĠĠĠĠĠĠĠĠĠĠĠĠĠĠĠĠĠĠĠĠĠĠĠĠĠĠĠĠĠĠĠĠĠ": 5879,
      "6488": 5880,
      "compressed": 5881,
      "complished": 5882,
      "Ġanalys": 5883,
      "quisites": 5884,
      "Ġgated": 5885,
      "Ġglobal": 5886,
      "FFFFFFFFF": 5887,
      "Ġprog": 5888,
      "Ġprotection": 5889,
      "outCntDw": 5890,
      "trivi": 5891,
      "ĠVCC": 5892,
      "ĠVCA": 5893,
      "ĠNever": 5894,
      "ĠNAME": 5895,
      "ĠNIST": 5896,
      "Ġchecker": 5897,
      "ĠInvalid": 5898,
      "ĠEnSync": 5899,
      "ĠEnsure": 5900,
      "Ġifc": 5901,
      "Ġadj": 5902,
      "Ġadapt": 5903,
      "Ġadapter": 5904,
      "Ġease": 5905,
      "Ġelect": 5906,
      "Ġefuses": 5907,
      "Ġevalu": 5908,
      "ivity": 5909,
      "ĠĠĠĠĠĠĠĠĠĠĠĠĠčĊ": 5910,
      "ilest": 5911,
      "ĠLine": 5912,
      "ĠLPG": 5913,
      "ĠLibrary": 5914,
      "ĠLifecycle": 5915,
      "ĠLOG": 5916,
      "ĠLeak": 5917,
      "ASCON": 5918,
      "ĠGCM": 5919,
      "ĠGalXor": 5920,
      "stra": 5921,
      "stract": 5922,
      "injection": 5923,
      "ĠNumD": 5924,
      "ĠNumDiv": 5925,
      "ĠNumShares": 5926,
      "Ġdocumented": 5927,
      "ences": 5928,
      "Ġsets": 5929,
      "ĠEnableIn": 5930,
      "Ġwhat": 5931,
      "Ġsimpl": 5932,
      "Ġspecifically": 5933,
      "----------------------------------------------------------------": 5934,
      "-------------------------------------|": 5935,
      "prop": 5936,
      "timecmp": 5937,
      "Debug": 5938,
      "Ġextract": 5939,
      "Ġexperim": 5940,
      "Ġshadow": 5941,
      "Ġshifter": 5942,
      "ĠDecoded": 5943,
      "Ġseen": 5944,
      "Ġopcode": 5945,
      "Ġopentitan": 5946,
      "Ġoppos": 5947,
      "Ġinstalled": 5948,
      "spm": 5949,
      "THOLD": 5950,
      "Ġimplementing": 5951,
      "Ġknown": 5952,
      "ASSES": 5953,
      "Ġchar": 5954,
      "Ġinitiation": 5955,
      "Ġdifference": 5956,
      "rvfi": 5957,
      "0156": 5958,
      "0103": 5959,
      "012606": 5960,
      "01496": 5961,
      "01407": 5962,
      "Ġregistered": 5963,
      "ULATION": 5964,
      "ĠQQ": 5965,
      "Ġdifferently": 5966,
      "Ġdifferentiated": 5967,
      "vmem": 5968,
      "ENS": 5969,
      "Ġleast": 5970,
      "Ġless": 5971,
      "Ġaccomplished": 5972,
      "ĠHWO": 5973,
      "AddrMask": 5974,
      "Ġtransfer": 5975,
      "pda": 5976,
      "Ġvisible": 5977,
      "5525": 5978,
      "5586": 5979,
      "ĠRefCnt": 5980,
      "ĠBusSizeECC": 5981,
      "Regs": 5982,
      "ATUS": 5983,
      "ATTGEN": 5984,
      "ĠStart": 5985,
      "ĠStretchCount": 5986,
      "TLUL": 5987,
      "Ġinstantiating": 5988,
      "ĠRVFI": 5989,
      "Ġcommonly": 5990,
      "Ġsynchron": 5991,
      "SRAM": 5992,
      "Valid": 5993,
      "ValUpd": 5994,
      "DataCheck": 5995,
      "][]": 5996,
      "204": 5997,
      "Ġmanage": 5998,
      "dog": 5999,
      "shadow": 6000,
      "shall": 6001,
      "0303": 6002,
      "03003": 6003,
      "Ġmosi": 6004,
      "Ġfixed": 6005,
      "DepthW": 6006,
      "scing": 6007,
      "Ġtrust": 6008,
      "also": 6009,
      "undary": 6010,
      "ĠReadByte": 6011,
      "ĠWriteback": 6012,
      "pwrb": 6013,
      "Ġwhereas": 6014,
      "Ġboundary": 6015,
      "ĠRndWidth": 6016,
      "MaxInW": 6017,
      "Ġdual": 6018,
      "Ġ168": 6019,
      "Ġqe": 6020,
      "Ġqre": 6021,
      "Stage": 6022,
      "StretchCount": 6023,
      "1271": 6024,
      "sources": 6025,
      "Ġstartup": 6026,
      "Ġcovers": 6027,
      "SBOX": 6028,
      "KeyWidth": 6029,
      "KeyInit": 6030,
      "BusWidth": 6031,
      "Ġfilelist": 6032,
      "ĠMemDataWidth": 6033,
      "ĠRndCnstL": 6034,
      "ĠRndCnstCsKeymgrDiv": 6035,
      "ĠRndCnstScrmbl": 6036,
      "Intr": 6037,
      "Interface": 6038,
      "Ġspare": 6039,
      "msb": 6040,
      "Ġxxxxxxxxx": 6041,
      "Ġxprop": 6042,
      "Ġoverlap": 6043,
      "ĠDataInd": 6044,
      "command": 6045,
      "Ġpause": 6046,
      "Ġpatch": 6047,
      "Ġsubmodule": 6048,
      "Ġnoise": 6049,
      "Ġstrictly": 6050,
      "Ġstraight": 6051,
      "ĠXoSh": 6052,
      "Ġlevels": 6053,
      "Ġdecided": 6054,
      "DELA": 6055,
      "Ġmainly": 6056,
      "110000": 6057,
      "1108": 6058,
      "Ġupload": 6059,
      "awire": 6060,
      "awvalid": 6061,
      "awready": 6062,
      "ĠCompliance": 6063,
      "ĠProbing": 6064,
      "xxx": 6065,
      "Ġdescription": 6066,
      "Ġsynthesized": 6067,
      "07003": 6068,
      "sideload": 6069,
      "ensive": 6070,
      "Ġclosely": 6071,
      "|:---------------------------------------------|:---------|---------:|:----------------------------------------------------------------": 6072,
      "025": 6073,
      "029": 6074,
      "0271": 6075,
      "02366": 6076,
      "CLKMGR": 6077,
      "EDN": 6078,
      "erequisites": 6079,
      "Ġserve": 6080,
      "Ġseries": 6081,
      "ibration": 6082,
      "force": 6083,
      "forward": 6084,
      "variant": 6085,
      "Ġcalibration": 6086,
      "PRIM": 6087,
      "PRIOR": 6088,
      "Ġdrain": 6089,
      "Ġdriven": 6090,
      "Ġcompact": 6091,
      "LfsrSeed": 6092,
      "488": 6093,
      "DCmd": 6094,
      "Ġnonce": 6095,
      "Ġassume": 6096,
      "IntgGen": 6097,
      "OutCnt": 6098,
      "OutEps": 6099,
      "layer": 6100,
      "rix": 6101,
      "ĠFSMs": 6102,
      "NumRegsRegs": 6103,
      "IdxWidth": 6104,
      "ĠEntropyWidth": 6105,
      "ĠEntropyDw": 6106,
      "ĠEntropyRateWidth": 6107,
      "Ġseparated": 6108,
      "ĠCoefficients": 6109,
      "Ġresulting": 6110,
      "Ġcombined": 6111,
      "sPerPage": 6112,
      "mmio": 6113,
      "Ġinforms": 6114,
      "Ġagent": 6115,
      "Ġorders": 6116,
      "Ġtherefore": 6117,
      "Ġinternally": 6118,
      "0803": 6119,
      "0807": 6120,
      "0831234": 6121,
      "087714": 6122,
      "IfName": 6123,
      "RoT": 6124,
      "Ġcompleted": 6125,
      "aves": 6126,
      "avail": 6127,
      "sba": 6128,
      "sbdev": 6129,
      "Ġprefixed": 6130,
      "configuration": 6131,
      "configurable": 6132,
      "Ġremote": 6133,
      "ĠNumClocks": 6134,
      "Ġmultiples": 6135,
      "040": 6136,
      "04413": 6137,
      "0467003": 6138,
      "pending": 6139,
      "Ġinserted": 6140,
      "Ġnegative": 6141,
      "NDioPads": 6142,
      "Ġflush": 6143,
      "cepts": 6144,
      "//////////////////////////////////////////////": 6145,
      "IMC": 6146,
      "premux": 6147,
      "ĠCrashStoreSlot": 6148,
      "ĠInfosPerBank": 6149,
      "Ġsynced": 6150,
      "Ġsynched": 6151,
      "Ġcmdparse": 6152,
      "ĠSwRstReq": 6153,
      "NumCopies": 6154,
      "breakout": 6155,
      "packing": 6156,
      "Ġscar": 6157,
      "ĠMHz": 6158,
      "ĠWhenever": 6159,
      "ĠEnSecB": 6160,
      "Ġ~(": 6161,
      "Ġself": 6162,
      "Ġuntested": 6163,
      "Ġconnections": 6164,
      "ĠConfigure": 6165,
      "090": 6166,
      "DOG": 6167,
      "Ġmessages": 6168,
      "Ġgoes": 6169,
      "mbols": 6170,
      "Ġpulldown": 6171,
      "ĠINVALID": 6172,
      "ĠBootRom": 6173,
      "ĠBootstrap": 6174,
      "Ġextclk": 6175,
      "Ġextens": 6176,
      "Production": 6177,
      "Ġgenerators": 6178,
      "DelayCycles": 6179,
      "Ġremains": 6180,
      "ĠDetection": 6181,
      "Ġrequirements": 6182,
      "chitectural": 6183,
      "PHASES": 6184,
      "RomSize": 6185,
      "Ġhel": 6186,
      "Ġticking": 6187,
      "Ġdivisor": 6188,
      "Ġmeans": 6189,
      "ioPadType": 6190,
      "Ġeffective": 6191,
      "Ġdetermines": 6192,
      "display": 6193,
      "ĠDmBaseAddr": 6194,
      "ĠDmAddrMask": 6195,
      "ĠAsynchronous": 6196,
      "operation": 6197,
      "ĠMaxRound": 6198,
      "ĠWordsPerPage": 6199,
      "================================": 6200,
      "Ġquick": 6201,
      "Ġplic": 6202,
      "Ġcrosses": 6203,
      "Ġcrossing": 6204,
      "Ġlockstep": 6205,
      "ĠUnrollW": 6206,
      "ĠDepthWNorm": 6207,
      "Ġconsumed": 6208,
      "Ġmultiplier": 6209,
      "Ġexecuted": 6210,
      "Ġpriorities": 6211,
      "dpm": 6212,
      "tained": 6213,
      "Ġdisco": 6214,
      "Ġdisabling": 6215,
      "Ġdetects": 6216,
      "SHIFT": 6217,
      "ZcaZc": 6218,
      "sival": 6219,
      "within": 6220,
      "depth": 6221,
      "Ġobser": 6222,
      "Ġobtained": 6223,
      "Ġfairl": 6224,
      "Ġreseeds": 6225,
      "007714": 6226,
      "Ġmatrix": 6227,
      "Ġoffset": 6228,
      "Ġcomputing": 6229,
      "ĠNUMB": 6230,
      "/////////////////////////////////////////////////": 6231,
      "Ġsequences": 6232,
      "Ġcountermeasure": 6233,
      "Ġoperands": 6234,
      "TriggerEn": 6235,
      "65926488": 6236,
      "Chk": 6237,
      "FIB": 6238,
      "WkupCntWidth": 6239,
      "alescing": 6240,
      "Ġkeys": 6241,
      "Ġabort": 6242,
      "Ġpolarity": 6243,
      "Ġsampled": 6244,
      "Ġsamples": 6245,
      "Ġwakeups": 6246,
      "ĠShadow": 6247,
      "ĠDFx": 6248,
      "Ġactivities": 6249,
      "ĠIdentity": 6250,
      "Ġemploys": 6251,
      "Ġprio": 6252,
      "Ġpreserved": 6253,
      "ĠTagSizeECC": 6254,
      "ĠASIC": 6255,
      "Ġrespected": 6256,
      "Ġrespectively": 6257,
      "triggered": 6258,
      "ĠRndCnstLfsrPermDefault": 6259,
      "ĠActiveHigh": 6260,
      "Ġoccurren": 6261,
      "TotalWake": 6262,
      "Ġparame": 6263,
      "Ġcircumstances": 6264,
      "Ġdpram": 6265,
      "Ġmapping": 6266,
      "ĠArchitecture": 6267,
      "ĠPacker": 6268,
      "ĠInverted": 6269,
      "guides": 6270,
      "singleton": 6271,
      "Ġcapable": 6272,
      "Ġcapabilities": 6273,
      "Ġwidely": 6274,
      "Ġreleasing": 6275,
      "009850": 6276,
      "00073": 6277,
      "ĠAttributes": 6278,
      "Ġnames": 6279,
      "ĠBuffered": 6280,
      "vivability": 6281,
      "vivado": 6282,
      "Ġtestplans": 6283,
      "Ġgroups": 6284,
      "ĠSecMaxSyncDe": 6285,
      "ĠSecMaxSyncDelay": 6286,
      "ĠRegFileFF": 6287,
      "ĠPMPRstCfg": 6288,
      "Ġmaintained": 6289,
      "ĠJittery": 6290,
      "ĠInfoTypesWidth": 6291,
      "ĠTriviumStateWidth": 6292,
      "MemDataWidth": 6293,
      "synchronized": 6294,
      "Ġfound": 6295,
      "Ġreason": 6296,
      "Ġbeats": 6297,
      "ĠRomSize": 6298,
      "Ġcollect": 6299,
      "versal": 6300,
      "ĠPrerequisites": 6301,
      "Ġlatter": 6302,
      "Ġeasily": 6303,
      "Ġcompiling": 6304,
      "Ġinverters": 6305,
      "Ġmultiplexer": 6306,
      "Ġemploying": 6307,
      "ĠCountermeas": 6308,
      "CmdInfo": 6309,
      "MinLfsrDw": 6310,
      "OffDomains": 6311,
      "digests": 6312,
      "Ġtreated": 6313,
      "Ġsurvivability": 6314,
      "Ġ///////////////////////////////////////////////////////": 6315,
      "Ġfamily": 6316,
      "Ġrules": 6317,
      "igital": 6318,
      "Ġreflect": 6319,
      "ĠTables": 6320,
      "ĠDbgTriggerEn": 6321,
      "Ġconverts": 6322,
      "Ġlocalpara": 6323,
      "Ġeffort": 6324,
      "StateP": 6325,
      "ĠIdcodeValue": 6326,
      "Ġproperties": 6327,
      "SHADOWED": 6328,
      "Ġcertificate": 6329,
      "Ġcomparisons": 6330,
      "ĠOutputZeroIfEmp": 6331,
      "Clears": 6332,
      "EntropyRateWidth": 6333,
      "IGGER": 6334,
      "Timing": 6335,
      "multdiv": 6336,
      "negedge": 6337,
      "Ġarray": 6338,
      "Ġcarry": 6339,
      "Ġsummarized": 6340,
      "Ġ////////////////////////////////////////////////////////////////////////////////": 6341,
      "Ġoutlined": 6342,
      "ĠImplementing": 6343,
      "ĠSIMULATION": 6344,
      "ĠSkipScan": 6345,
      "ĠTHIS": 6346,
      "Ġhalf": 6347,
      "Ġenhances": 6348,
      "videValUpd": 6349,
      "Ġglitch": 6350,
      "ENABLE": 6351,
      "TRSTn": 6352,
      "column": 6353,
      "Ġboxes": 6354,
      "Ġspeeds": 6355,
      "ĠKmacEnMasking": 6356,
      "Ġgreatly": 6357,
      "Ġengineering": 6358,
      "Ġbehaviours": 6359,
      "ENDPOINT": 6360,
      "-+-----------+----------": 6361,
      "1805": 6362,
      "Before": 6363,
      "BidirStd": 6364,
      "CLASSES": 6365,
      "CdcRand": 6366,
      "CrashStoreSlot": 6367,
      "CHECK": 6368,
      "ECOs": 6369,
      "FBDD": 6370,
      "IoBanks": 6371,
      "IMPLS": 6372,
      "Jittery": 6373,
      "RUNS": 6374,
      "RzHs": 6375,
      "TIMER": 6376,
      "bZcmp": 6377,
      "fibs": 6378,
      "methodology": 6379,
      "nopass": 6380,
      "ralgen": 6381,
      "vmdvgen": 6382,
      "|-------|-------------------------------------|": 6383,
      "Ġelabor": 6384,
      "Ġ-------------+-----------+----------": 6385,
      "index": 6386,
      "Ġtapeout": 6387,
      "Ġsupplied": 6388,
      "Ġbuilt": 6389,
      "Ġtogether": 6390,
      "ĠSlotCntWidth": 6391,
      "ĠCsKeymgrDivWidth": 6392,
      "Ġdeveloped": 6393,
      "Ġholding": 6394,
      "illegal": 6395,
      "ĠPatching": 6396,
      "ĠPagesPerBank": 6397,
      "Ġstretches": 6398,
      "Ġconveni": 6399,
      "ĠMACRO": 6400,
      "ĠFIPS": 6401,
      "Ġanalysis": 6402,
      "trivium": 6403,
      "ĠVCAON": 6404,
      "ĠNeverClears": 6405,
      "Ġelectrical": 6406,
      "ĠLeakage": 6407,
      "ĠNumDivClks": 6408,
      "Ġopposite": 6409,
      "5525488": 6410,
      "ĠWritebackStage": 6411,
      "ĠRndCnstScrmblKeyInit": 6412,
      "ĠDataIndTiming": 6413,
      "Ġstraightforward": 6414,
      "ĠXoShiRo": 6415,
      "DELAY": 6416,
      "PRIORIT": 6417,
      "ĠBootRomInitFile": 6418,
      "ZcaZcbZcmp": 6419,
      "Ġfairly": 6420,
      "TotalWakeWidth": 6421,
      "0098505586": 6422,
      "ĠOutputZeroIfEmpty": 6423,
      "\">": 6424,
      "().": 6425,
      ")).": 6426,
      "*,": 6427,
      "02473": 6428,
      "302": 6429,
      "409": 6430,
      "4096": 6431,
      "77": 6432,
      ";\">": 6433,
      ">`": 6434,
      "Ast": 6435,
      "Ack": 6436,
      "Ass": 6437,
      "AON": 6438,
      "AcqFifoDepth": 6439,
      "BC": 6440,
      "BU": 6441,
      "BAR": 6442,
      "CTL": 6443,
      "Cache": 6444,
      "DMEM": 6445,
      "DSA": 6446,
      "Docum": 6447,
      "Earl": 6448,
      "Edge": 6449,
      "Fx": 6450,
      "Filter": 6451,
      "FSM": 6452,
      "Ht": 6453,
      "Hub": 6454,
      "However": 6455,
      "HRsp": 6456,
      "HASH": 6457,
      "IRE": 6458,
      "Mul": 6459,
      "Mailbox": 6460,
      "NAME": 6461,
      "NLOCKED": 6462,
      "OC": 6463,
      "Of": 6464,
      "PEN": 6465,
      "Predict": 6466,
      "QN": 6467,
      "RT": 6468,
      "RngBusBitSelWidth": 6469,
      "SG": 6470,
      "Silicon": 6471,
      "Since": 6472,
      "Suspend": 6473,
      "TN": 6474,
      "TOR": 6475,
      "UART": 6476,
      "Urnd": 6477,
      "Usbdev": 6478,
      "UNLOCKED": 6479,
      "VOL": 6480,
      "WDOG": 6481,
      "ZW": 6482,
      "]:": 6483,
      "]](": 6484,
      "_:": 6485,
      "`).": 6486,
      "btb": 6487,
      "bee": 6488,
      "bCnt": 6489,
      "ci": 6490,
      "clo": 6491,
      "cert": 6492,
      "cue": 6493,
      "cpu": 6494,
      "circ": 6495,
      "create": 6496,
      "ccelerator": 6497,
      "dat": 6498,
      "datasheet": 6499,
      "eop": 6500,
      "eaking": 6501,
      "ealth": 6502,
      "fran": 6503,
      "fra": 6504,
      "fips": 6505,
      "gTypes": 6506,
      "hC": 6507,
      "hD": 6508,
      "hb": 6509,
      "hz": 6510,
      "hde": 6511,
      "high": 6512,
      "iac": 6513,
      "ival": 6514,
      "jec": 6515,
      "kens": 6516,
      "lid": 6517,
      "lated": 6518,
      "lack": 6519,
      "last": 6520,
      "lush": 6521,
      "like": 6522,
      "mtime": 6523,
      "mhz": 6524,
      "nb": 6525,
      "ne": 6526,
      "neat": 6527,
      "needed": 6528,
      "ores": 6529,
      "pn": 6530,
      "pag": 6531,
      "pgen": 6532,
      "pol": 6533,
      "pop": 6534,
      "png": 6535,
      "prd": 6536,
      "payload": 6537,
      "qe": 6538,
      "ru": 6539,
      "rint": 6540,
      "rascale": 6541,
      "scl": 6542,
      "sions": 6543,
      "support": 6544,
      "sampling": 6545,
      "tm": 6546,
      "tn": 6547,
      "tz": 6548,
      "tin": 6549,
      "tic": 6550,
      "tend": 6551,
      "typically": 6552,
      "uar": 6553,
      "ued": 6554,
      "ucket": 6555,
      "vents": 6556,
      "vendor": 6557,
      "when": 6558,
      "wren": 6559,
      "wdog": 6560,
      "|---------------": 6561,
      "Ġes": 6562,
      "Ġ----------------": 6563,
      "Ġ31": 6564,
      "Ġulp": 6565,
      "Ġque": 6566,
      "Ġ----------": 6567,
      "Ġillegal": 6568,
      "inclu": 6569,
      "inferred": 6570,
      "erative": 6571,
      "Ġtechnical": 6572,
      "Ġtaking": 6573,
      "Ġtpm": 6574,
      "rete": 6575,
      "reseed": 6576,
      "remote": 6577,
      "lor": 6578,
      "long": 6579,
      "loaded": 6580,
      "stand": 6581,
      "stimulus": 6582,
      "stretch": 6583,
      "Ġale": 6584,
      "Ġalong": 6585,
      "Ġpor": 6586,
      "Ġpot": 6587,
      "Ġpick": 6588,
      "Ġplatform": 6589,
      "orb": 6590,
      "orse": 6591,
      "icity": 6592,
      "icular": 6593,
      "leges": 6594,
      "leaves": 6595,
      "Ġclea": 6596,
      "Ġcfran": 6597,
      "Ġctn": 6598,
      "arly": 6599,
      "architectural": 6600,
      "img": 6601,
      "imm": 6602,
      "images": 6603,
      "implement": 6604,
      "Ġlot": 6605,
      "Ġlook": 6606,
      "Ġloaded": 6607,
      "itHub": 6608,
      "Ġou": 6609,
      "Ġoverride": 6610,
      "Ġown": 6611,
      "Ġsb": 6612,
      "Ġsv": 6613,
      "Ġsal": 6614,
      "Ġsave": 6615,
      "Ġsays": 6616,
      "Ġsampling": 6617,
      "Ġbuf": 6618,
      "Ġblink": 6619,
      "Ġblank": 6620,
      "aming": 6621,
      "aler": 6622,
      "align": 6623,
      "alma": 6624,
      "allocated": 6625,
      "etric": 6626,
      "----|": 6627,
      "------": 6628,
      "Ġ[$": 6629,
      "mod": 6630,
      "duc": 6631,
      "dual": 6632,
      "duct": 6633,
      "Ġfed": 6634,
      "Ġfoc": 6635,
      "Ġfun": 6636,
      "Ġfail": 6637,
      "Ġfresh": 6638,
      "Ġfigure": 6639,
      "asic": 6640,
      "Ġdirection": 6641,
      "ĠĠĠĠĠĠĠĠĠĠĠĠĠĠĠĠĠčĊ": 6642,
      "Ġrready": 6643,
      "row": 6644,
      "Ġinte": 6645,
      "Ġtokens": 6646,
      "igw": 6647,
      "ckPeriod": 6648,
      "Ġwit": 6649,
      "Ġwant": 6650,
      "Ġwmask": 6651,
      "Ġwren": 6652,
      "Ġwiped": 6653,
      "Ġred": 6654,
      "Ġreco": 6655,
      "Ġregenerated": 6656,
      "Ġreuse": 6657,
      "Ġremap": 6658,
      "Ġremasking": 6659,
      "cout": 6660,
      "coco": 6661,
      "coAlma": 6662,
      "ident": 6663,
      "thing": 6664,
      "thold": 6665,
      "Ġclken": 6666,
      "ecution": 6667,
      "niversal": 6668,
      "acent": 6669,
      "ental": 6670,
      "entry": 6671,
      "Ġimportant": 6672,
      "Ġmis": 6673,
      "Ġmaking": 6674,
      "Ġmilest": 6675,
      "ĠIE": 6676,
      "ĠInd": 6677,
      "ĠIMP": 6678,
      "Ġ17": 6679,
      "Ġ10000": 6680,
      "Ġ1000": 6681,
      "ĠSE": 6682,
      "ĠSI": 6683,
      "ĠSP": 6684,
      "ĠSub": 6685,
      "ĠSpi": 6686,
      "ĠSCA": 6687,
      "ĠSpecial": 6688,
      "ĠSckPeriod": 6689,
      "ĠThen": 6690,
      "ĠTurning": 6691,
      "uming": 6692,
      "Ġforwards": 6693,
      "adbee": 6694,
      "ĠCC": 6695,
      "ĠCK": 6696,
      "ĠCSB": 6697,
      "ĠCategory": 6698,
      "Ġiss": 6699,
      "Ġispr": 6700,
      "grant": 6701,
      "ĠDiv": 6702,
      "ĠDelay": 6703,
      "ĠDirection": 6704,
      "ĠDmemAddrWidth": 6705,
      "ĠDmemSizeByte": 6706,
      "ĠDatasheet": 6707,
      "ĠDigital": 6708,
      "ĠDIRE": 6709,
      "ationship": 6710,
      "Ġdeve": 6711,
      "Ġdeassert": 6712,
      "Ġdebounce": 6713,
      "Ġdecrypt": 6714,
      "Ġalign": 6715,
      "Ġalwa": 6716,
      "Ġalter": 6717,
      "Ġthi": 6718,
      "Ġthreat": 6719,
      "ubs": 6720,
      "ublic": 6721,
      "ĠRD": 6722,
      "ĠRO": 6723,
      "ĠRow": 6724,
      "ĠRep": 6725,
      "ĠRES": 6726,
      "ĠRND": 6727,
      "clks": 6728,
      "abort": 6729,
      "Ġhier": 6730,
      "ili": 6731,
      "iler": 6732,
      "agement": 6733,
      "seq": 6734,
      "signal": 6735,
      "Ġassembly": 6736,
      "verify": 6737,
      "ĠAp": 6738,
      "ĠAuto": 6739,
      "ĠAdc": 6740,
      "ĠAcqFifoDepth": 6741,
      "ĠPTR": 6742,
      "ĠPhase": 6743,
      "ĠPassthrough": 6744,
      "ĠPhysical": 6745,
      "ĠPULP": 6746,
      "ĠPurpose": 6747,
      "asserted": 6748,
      "ĠOp": 6749,
      "ĠOper": 6750,
      "ĠOPEN": 6751,
      "lowFor": 6752,
      "Ġnone": 6753,
      "Ġnature": 6754,
      "Ġstack": 6755,
      "Ġstore": 6756,
      "Ġstrobe": 6757,
      "Ġstores": 6758,
      "ements": 6759,
      "ception": 6760,
      "olib": 6761,
      "olved": 6762,
      "Ġsymbols": 6763,
      "NumApp": 6764,
      "NumIOs": 6765,
      "NumRstReq": 6766,
      "NumEndPoints": 6767,
      "opts": 6768,
      "wait": 6769,
      "istics": 6770,
      "Ġlit": 6771,
      "Ġlast": 6772,
      "Ġlines": 6773,
      "Ġlightweight": 6774,
      "Ġunsi": 6775,
      "Ġunless": 6776,
      "-------------------------|": 6777,
      "--------------------------": 6778,
      "---------------------": 6779,
      "ioWidth": 6780,
      "plate": 6781,
      "plain": 6782,
      "ĠError": 6783,
      "ĠEdge": 6784,
      "urer": 6785,
      "urns": 6786,
      "andle": 6787,
      "Ġenfor": 6788,
      "Ġencrypt": 6789,
      "ctions": 6790,
      "Ġ||": 6791,
      "omatic": 6792,
      "ĠBack": 6793,
      "ĠBank": 6794,
      "ĠBOOT": 6795,
      "irec": 6796,
      "resent": 6797,
      "ĠMin": 6798,
      "ĠMap": 6799,
      "ĠMess": 6800,
      "ĠMASK": 6801,
      "ĠMSG": 6802,
      "Ġrespec": 6803,
      "Ġrescue": 6804,
      "vileges": 6805,
      "Ġregions": 6806,
      "Ġregulator": 6807,
      "ĠFlop": 6808,
      "ĠFormal": 6809,
      "ĠFieldW": 6810,
      "ĠFlush": 6811,
      "Ġcome": 6812,
      "Ġcombo": 6813,
      "bout": 6814,
      "board": 6815,
      "boot": 6816,
      "Ġbegins": 6817,
      "ultrascale": 6818,
      "Ġlocally": 6819,
      "ĠIntroduction": 6820,
      "acking": 6821,
      "Ġiterative": 6822,
      "Ġbinding": 6823,
      "ĠĠĠĠĠĠĠĠĠĠĠĠĠĠĠĠĠĠĠĠĠĠĠĠĠĠĠĠĠĠĠĠĠĠĠĠĠ": 6824,
      "ĠĠĠĠĠĠĠĠĠĠĠĠĠĠĠĠĠĠĠĠĠĠĠĠĠĠĠĠĠĠĠĠĠĠĠĠĠĠĠĠĠĠĠĠĠĠĠĠĠĠĠĠ": 6825,
      "ialization": 6826,
      "combo": 6827,
      "compute": 6828,
      "Ġclocking": 6829,
      "Ġgf": 6830,
      "Ġgw": 6831,
      "Ġgive": 6832,
      "Ġguar": 6833,
      "ĠWith": 6834,
      "ĠWIP": 6835,
      "ĠWipe": 6836,
      "ĠVIP": 6837,
      "ĠVAL": 6838,
      "post": 6839,
      "tests": 6840,
      "eprint": 6841,
      "token": 6842,
      "ĠNPower": 6843,
      "ĠNAP": 6844,
      "ĠEncryption": 6845,
      "Ġcontext": 6846,
      "ideload": 6847,
      "topology": 6848,
      "ivation": 6849,
      "ivate": 6850,
      "lci": 6851,
      "cons": 6852,
      "Ġwired": 6853,
      "ĠLower": 6854,
      "ĠLcKeymgrDiv": 6855,
      "AST": 6856,
      "ĠGF": 6857,
      "Ġassigns": 6858,
      "Ġendpoint": 6859,
      "Ġendorse": 6860,
      "ĠNumIn": 6861,
      "ĠNumAlerts": 6862,
      "ĠNumTarget": 6863,
      "ĠNumSrc": 6864,
      "ĠNumRegions": 6865,
      "ĠNumInstances": 6866,
      "ĠNumOutEps": 6867,
      "Ġrvclkhdr": 6868,
      "Ġrvbtb": 6869,
      "Ġattribut": 6870,
      "Ġattestation": 6871,
      "Invalid": 6872,
      "InIs": 6873,
      "![](../": 6874,
      "Ġassets": 6875,
      "Ġnote": 6876,
      "foo": 6877,
      "ĠĠĠĠĠĠĠĠĠĠĠĠĠĠĠĠĠĠčĊ": 6878,
      "Ġsimulated": 6879,
      "projec": 6880,
      "Ġ400": 6881,
      "Ġexist": 6882,
      "Ġexplic": 6883,
      "Ġexplain": 6884,
      "Ġia": 6885,
      "Ġii": 6886,
      "Ġsear": 6887,
      "ĠUpd": 6888,
      "ĠUser": 6889,
      "ĠUniversal": 6890,
      "Ġinstall": 6891,
      "spect": 6892,
      "IDE": 6893,
      "Only": 6894,
      "OnRead": 6895,
      "Ġchandle": 6896,
      "Ġinitiate": 6897,
      "ĠAlerts": 6898,
      "Ġlever": 6899,
      "rong": 6900,
      "Ġadditions": 6901,
      "Ġversions": 6902,
      "EnSec": 6903,
      "ĠReq": 6904,
      "ĠReduce": 6905,
      "384": 6906,
      "Register": 6907,
      "Ġrequesting": 6908,
      "aken": 6909,
      "TRIGGER": 6910,
      "}};": 6911,
      "}}),": 6912,
      "ifoWidth": 6913,
      "Ġmasken": 6914,
      "ĠSecAl": 6915,
      "ĠSecStart": 6916,
      "gov": 6917,
      "going": 6918,
      "good": 6919,
      "ird": 6920,
      "ĠConcurrent": 6921,
      "Ġdoing": 6922,
      "sonalization": 6923,
      "Ġdetail": 6924,
      "DataMaxWidth": 6925,
      "Ġpacks": 6926,
      "Ġpacket": 6927,
      "Ġpackets": 6928,
      "2048": 6929,
      "2047": 6930,
      "Endpoints": 6931,
      "Ġmanaged": 6932,
      "Ġmanagement": 6933,
      "ORTA": 6934,
      "governanc": 6935,
      "Ġmodulo": 6936,
      "Ġtracing": 6937,
      "=====": 6938,
      "DeviceSramType": 6939,
      "Ġreads": 6940,
      "Ġreading": 6941,
      "Ġdefines": 6942,
      "Ġutility": 6943,
      "ĠĠĠĠĠĠĠĠĠĠĠĠĠĠĠĠĠĠĠĠĠčĊ": 6944,
      "oneshot": 6945,
      "Ġboiler": 6946,
      "MaxW": 6947,
      "MaxRound": 6948,
      "Ġinterplay": 6949,
      "Ġinterleaves": 6950,
      "Masks": 6951,
      "SizeRam": 6952,
      "rden": 6953,
      "rderr": 6954,
      "Ġqn": 6955,
      "memDataWidth": 6956,
      "Status": 6957,
      "Stream": 6958,
      "ĠTesting": 6959,
      "ĠTestbench": 6960,
      "TAGW": 6961,
      "Ġcovered": 6962,
      "Ġnumbers": 6963,
      "Ġactually": 6964,
      "Busy": 6965,
      "BusFull": 6966,
      "IOW": 6967,
      "Ġbehavioral": 6968,
      "573": 6969,
      "Ġpadded": 6970,
      "Ġclaim": 6971,
      "Ġspot": 6972,
      "Ġspeaking": 6973,
      "Ġsynchronized": 6974,
      "ICE": 6975,
      "ICG": 6976,
      "msip": 6977,
      "clocking": 6978,
      "|:---------|---------:": 6979,
      "ĠDataDefault": 6980,
      "common": 6981,
      "COMP": 6982,
      "field": 6983,
      "Ġsubset": 6984,
      "Ġsubmodules": 6985,
      "ĠXEX": 6986,
      "seeds": 6987,
      "padring": 6988,
      "Ġparticular": 6989,
      "Ġupcoming": 6990,
      "ached": 6991,
      "awid": 6992,
      "awaddr": 6993,
      "ĠComput": 6994,
      "ĠComportable": 6995,
      "ĠProgram": 6996,
      "ĠProtection": 6997,
      "IdWidth": 6998,
      "Ġdescramble": 6999,
      "Ġdescrambling": 7000,
      "CocoAlma": 7001,
      "Ġrecommend": 7002,
      "Ġviable": 7003,
      "Ġserver": 7004,
      "Ġresponses": 7005,
      "SecCheck": 7006,
      "SecMaxSync": 7007,
      "DefaultSramType": 7008,
      "âĶĢâĶĢâĶĢâĶĢâĶ": 7009,
      "Initialization": 7010,
      "191": 7011,
      "PadOutWidth": 7012,
      "````": 7013,
      "Ġcompress": 7014,
      "ĠlowRISC": 7015,
      "ĠPROLEAD": 7016,
      "ĠPRIOW": 7017,
      "ByteW": 7018,
      "INTPRIORIT": 7019,
      "Ġwriter": 7020,
      "Ġsynchronizers": 7021,
      "oxes": 7022,
      "Ġoperational": 7023,
      "Ġvectorized": 7024,
      "Ġconsistent": 7025,
      "ERROR": 7026,
      "ĠUSBDEV": 7027,
      "Trig": 7028,
      "ĠĠĠĠĠĠĠĠĠĠĠĠĠĠĠĠĠĠĠĠĠĠĠĠĠĠĠĠĠĠĠĠĠĠĠĠĠĠĠĠĠĠĠĠĠĠĠĠĠĠĠĠĠĠĠĠĠĠĠĠĠĠĠĠĠĠĠĠĠĠĠĠĠĠĠĠĠ": 7029,
      "BankW": 7030,
      "---------|:---------|---------:": 7031,
      "ĠEDA": 7032,
      "ĠEDIT": 7033,
      "Ġprocesses": 7034,
      "Ġprocessing": 7035,
      "mmetric": 7036,
      "Ġotherwise": 7037,
      "InfosP": 7038,
      "Ġselector": 7039,
      "dai": 7040,
      "Ġallowing": 7041,
      "BusAddrByteW": 7042,
      "Ġcompletes": 7043,
      "LOG": 7044,
      "LOW": 7045,
      "OUT": 7046,
      "Ġprecompute": 7047,
      "Ġcfgs": 7048,
      "ĠAlways": 7049,
      "ĠAlloc": 7050,
      "they": 7051,
      "Ġinsert": 7052,
      "ĠManually": 7053,
      "attrs": 7054,
      "ceptually": 7055,
      "Ġbootstrap": 7056,
      "Ġarbitrates": 7057,
      "Divisor": 7058,
      "DivEven": 7059,
      "behavioral": 7060,
      "Ġbackpress": 7061,
      "ĠInfoSel": 7062,
      "Reseed": 7063,
      "zeroes": 7064,
      "ĠSYS": 7065,
      "ĠSramBaseAddr": 7066,
      "Ġlinks": 7067,
      "Ġlinker": 7068,
      "Ġdependent": 7069,
      "ĠAddClk": 7070,
      "Ġstandardizes": 7071,
      "ources": 7072,
      "transposed": 7073,
      "Ġposedge": 7074,
      "afe": 7075,
      "Ġlisten": 7076,
      "DataIntgWidth": 7077,
      "Ġattacker": 7078,
      "BaseAddress": 7079,
      "HIGH": 7080,
      "Ġentity": 7081,
      "arkdown": 7082,
      "Ġ1024": 7083,
      "Instead": 7084,
      "340": 7085,
      "Ġextended": 7086,
      "ProgTypes": 7087,
      "Ġbroad": 7088,
      "Ġbroken": 7089,
      "ĠExample": 7090,
      "ĠExecut": 7091,
      "ĠExtend": 7092,
      "csid": 7093,
      "Ġprivileges": 7094,
      "Ġhardened": 7095,
      "ĠMasked": 7096,
      "ĠĠĠĠĠĠĠĠĠĠĠĠĠĠĠĠĠĠĠĠĠĠĠĠĠĠĠĠĠĠĠĠĠĠĠĠĠĠĠĠĠĠĠĠĠĠĠĠĠĠĠĠĠĠĠĠĠĠĠĠĠĠ": 7097,
      "Ġgreen": 7098,
      "ĠGenerator": 7099,
      "Ġpaths": 7100,
      "PRIOW": 7101,
      "pullup": 7102,
      "pulldown": 7103,
      "Ġhealth": 7104,
      "Ġmeant": 7105,
      "Ġmeigw": 7106,
      "Ġhooks": 7107,
      "Ġprovisioning": 7108,
      "Ġissuing": 7109,
      "ĠDmBaseAddress": 7110,
      "Ġequival": 7111,
      "Ġspidpi": 7112,
      "Ġaccumulates": 7113,
      "ECTOR": 7114,
      "Ġ!=": 7115,
      "Ġ>=": 7116,
      "Ġplaced": 7117,
      "Ġplaces": 7118,
      "Ġreceive": 7119,
      "Ġunderneat": 7120,
      "ĠSecureIbex": 7121,
      "ResetWidth": 7122,
      "Verilator": 7123,
      "mapped": 7124,
      "Ġflexible": 7125,
      "Ġrelies": 7126,
      "Ġrelationship": 7127,
      "Ġreturning": 7128,
      "Ġreturns": 7129,
      "----------|": 7130,
      "Ġallocate": 7131,
      "ĠBUFx": 7132,
      "ĠInternal": 7133,
      "ĠInstall": 7134,
      "Ġpoints": 7135,
      "Conceptually": 7136,
      "gateway": 7137,
      "Ġownership": 7138,
      "Ġ////////////////": 7139,
      "Ġmatched": 7140,
      "ĠBranchCache": 7141,
      "ĠBranchPredict": 7142,
      "ĠLevelEdge": 7143,
      "ĠGpioA": 7144,
      "ĠGpioAsHwStrapsEn": 7145,
      "structure": 7146,
      "TriggerDelay": 7147,
      "...": 7148,
      "NoFpgaGate": 7149,
      "Ġable": 7150,
      "Ġscripts": 7151,
      "Ġbinaries": 7152,
      "Ġfalling": 7153,
      "ĠShould": 7154,
      "ĠShutdown": 7155,
      "ĠSetup": 7156,
      "Ġholds": 7157,
      "ĠPrevent": 7158,
      "Ġcompared": 7159,
      "SignalWidth": 7160,
      "1402473": 7161,
      "brid": 7162,
      "Ġparsing": 7163,
      "Ġpresent": 7164,
      "Ġlonger": 7165,
      "Ġlints": 7166,
      "Ġapproach": 7167,
      "Ġindependently": 7168,
      "Ġincreasing": 7169,
      "Ġflexibly": 7170,
      "Ġflexibility": 7171,
      "SPEC": 7172,
      "TotalResetWidth": 7173,
      "Ġembed": 7174,
      "Ġautomatic": 7175,
      "Ġrawclk": 7176,
      "Ġmapped": 7177,
      "ĠTransfer": 7178,
      "ĠArbCnt": 7179,
      "Ġlinear": 7180,
      "Ġlengths": 7181,
      "ufacturing": 7182,
      "Ġknowledge": 7183,
      "ĠStEraseIdle": 7184,
      "ĠStEraseSuspend": 7185,
      "ĠStEraseBusy": 7186,
      "ĠSecSkip": 7187,
      "Ġscheme": 7188,
      "Ġwaiting": 7189,
      "Ġaffects": 7190,
      "Ġslots": 7191,
      "Ġbidirec": 7192,
      "Ġrelevant": 7193,
      "ĠAttestation": 7194,
      "ĠAPIs": 7195,
      "ĠPipelineMul": 7196,
      "Ġstreaming": 7197,
      "ĠMsgFIFO": 7198,
      "ĠEnableRspIntgGen": 7199,
      "Ġindices": 7200,
      "CSW": 7201,
      "PORT": 7202,
      "cingMasks": 7203,
      "flush": 7204,
      "pared": 7205,
      "sigverify": 7206,
      "|-----------------------|": 7207,
      "Ġpipelines": 7208,
      "Ġreasons": 7209,
      "Ġ14000": 7210,
      "ĠSimple": 7211,
      "ĠSTART": 7212,
      "ĠCSW": 7213,
      "ĠCSb": 7214,
      "Ġconstructed": 7215,
      "Ġeasy": 7216,
      "bufgce": 7217,
      "Ġaccepts": 7218,
      "Ġmanipulated": 7219,
      "toolchains": 7220,
      "ReadStatus": 7221,
      "Ġmultiplexable": 7222,
      "Ġkeeping": 7223,
      "Ġemployed": 7224,
      "PrioWidth": 7225,
      "_*_": 7226,
      "news": 7227,
      "ĠKeys": 7228,
      "ĠKeep": 7229,
      "Ġtells": 7230,
      "Ġcaptured": 7231,
      "Ġmix": 7232,
      "ĠObject": 7233,
      "ĠNotes": 7234,
      "Ġexpand": 7235,
      "Ġtransmitter": 7236,
      "Ġmanufacturing": 7237,
      "Ġmanufacturer": 7238,
      "Ġidentity": 7239,
      "Ġacknowled": 7240,
      "Ġacknowledge": 7241,
      "ĠRndCnstAddrKey": 7242,
      "ĠRndCnstAddrKeyDefault": 7243,
      "ĠRndCnstDataKey": 7244,
      "ĠRndCnstDataKeyDefault": 7245,
      "Outputs": 7246,
      "InfoTypesWidth": 7247,
      "ĠGpioGpioAsyncOn": 7248,
      "ĠGpioGpioAsHwStrapsEn": 7249,
      "ĠRndCnstAllSeedsDefault": 7250,
      "ĠRndCnstDigestConstDefault": 7251,
      "CSRNG": 7252,
      "Ġgran": 7253,
      "reduced": 7254,
      "Ġpressuring": 7255,
      "Ġcareful": 7256,
      "Ġmade": 7257,
      "ĠCryptography": 7258,
      "ĠDPE": 7259,
      "Ġhardcoded": 7260,
      "ĠADDR": 7261,
      "Ġlarger": 7262,
      "ĠFILE": 7263,
      "ĠFunctions": 7264,
      "Ġoptionally": 7265,
      "ĠRequirements": 7266,
      "Ġdefinitions": 7267,
      "Ġswitched": 7268,
      "ryptolib": 7269,
      "Ġcorresponding": 7270,
      "Ġauthenticity": 7271,
      "----------------------------|---------------|---------------": 7272,
      "Analog": 7273,
      "nonblock": 7274,
      "rawclk": 7275,
      "Ġessentially": 7276,
      "Ġintroduce": 7277,
      "Ġrendered": 7278,
      "ĠDriven": 7279,
      "endianness": 7280,
      "ĠAppCfg": 7281,
      "Ġstatements": 7282,
      "ceeds": 7283,
      "NumAdcFilter": 7284,
      "ĠBuff": 7285,
      "Ġadjacent": 7286,
      "Ġsimpler": 7287,
      "ĠReadByteEnable": 7288,
      "ĠRndCnstLcKeymgrDiv": 7289,
      "|:---------------------------------------------|:---------|---------:|:-------------------------------------------------------------------|": 7290,
      "DCmdMaxWidth": 7291,
      "Ġquickly": 7292,
      "Ġobserved": 7293,
      "CmdInfoReadStatus": 7294,
      "302573": 7295,
      "4095": 7296,
      "CTLY": 7297,
      "VOLT": 7298,
      "frastructure": 7299,
      "hdeadbee": 7300,
      "iacr": 7301,
      "supported": 7302,
      "ucketHt": 7303,
      "Ġqueued": 7304,
      "Ġcfrantz": 7305,
      "Ġsalient": 7306,
      "Ġbufg": 7307,
      "Ġfunct": 7308,
      "ĠIMPORTA": 7309,
      "ĠSpiDeviceSramType": 7310,
      "ĠDivisor": 7311,
      "ĠDIRECTLY": 7312,
      "Ġdevelo": 7313,
      "Ġaltered": 7314,
      "ĠRepresent": 7315,
      "ĠRESVAL": 7316,
      "Ġhierarch": 7317,
      "ĠPTRNG": 7318,
      "ĠOPENOCD": 7319,
      "lowForcingMasks": 7320,
      "NumRstReqs": 7321,
      "ĠMessage": 7322,
      "Ġguarant": 7323,
      "ĠVALID": 7324,
      "ĠLcKeymgrDivWidth": 7325,
      "Ġendorsement": 7326,
      "ĠNumInEps": 7327,
      "Ġattribute": 7328,
      "InIsZero": 7329,
      "Ġexplicit": 7330,
      "ĠUpdate": 7331,
      "EnSecBuf": 7332,
      "ĠSecAllowForcingMasks": 7333,
      "ĠSecStartTriggerDelay": 7334,
      "Streams": 7335,
      "BusFullWidth": 7336,
      "SecMaxSyncDelay": 7337,
      "Ġbackpressures": 7338,
      "ĠAddClkBuf": 7339,
      "ĠExtendability": 7340,
      "Ġequivalent": 7341,
      "Ġunderneath": 7342,
      "ĠBranchPredictor": 7343,
      "ĠLevelEdgeTrig": 7344,
      "ĠIMPORTANT": 7345,
      "!).": 7346,
      "\");": 7347,
      "'ve": 7348,
      "((": 7349,
      "(`": 7350,
      ")-": 7351,
      ")<": 7352,
      ")}": 7353,
      ")),": 7354,
      ")</": 7355,
      "*_": 7356,
      "+:": 7357,
      ".)": 7358,
      ".:": 7359,
      ".$$": 7360,
      "/)": 7361,
      "/_": 7362,
      "05": 7363,
      "1003": 7364,
      "10001": 7365,
      "1010": 7366,
      "1005": 7367,
      "1001": 7368,
      "29": 7369,
      "200073": 7370,
      "400": 7371,
      "83": 7372,
      "868": 7373,
      "90": 7374,
      "93": 7375,
      "965": 7376,
      "953": 7377,
      "974": 7378,
      ":/": 7379,
      "=$": 7380,
      ">&": 7381,
      ">:": 7382,
      "ACC": 7383,
      "Abits": 7384,
      "AUX": 7385,
      "ANS": 7386,
      "About": 7387,
      "BX": 7388,
      "Bl": 7389,
      "By": 7390,
      "Buffer": 7391,
      "BAL": 7392,
      "BECC": 7393,
      "Boot": 7394,
      "Break": 7395,
      "Book": 7396,
      "Blank": 7397,
      "Both": 7398,
      "CG": 7399,
      "Cl": 7400,
      "Can": 7401,
      "Cha": 7402,
      "CMA": 7403,
      "Current": 7404,
      "COM": 7405,
      "CDC": 7406,
      "Cns": 7407,
      "Custom": 7408,
      "Copy": 7409,
      "DU": 7410,
      "Dp": 7411,
      "Dst": 7412,
      "DRES": 7413,
      "DmemSizeByte": 7414,
      "DioPads": 7415,
      "DIOs": 7416,
      "Digit": 7417,
      "DBG": 7418,
      "Err": 7419,
      "EPR": 7420,
      "Every": 7421,
      "Events": 7422,
      "FW": 7423,
      "Flash": 7424,
      "FLAT": 7425,
      "FpgaBufGlobal": 7426,
      "FuseSoC": 7427,
      "FieldEnVal": 7428,
      "FOLD": 7429,
      "Fraction": 7430,
      "FifoWidth": 7431,
      "Go": 7432,
      "GLO": 7433,
      "GitHub": 7434,
      "Hold": 7435,
      "HMAC": 7436,
      "Head": 7437,
      "HPMCounter": 7438,
      "Halt": 7439,
      "HQN": 7440,
      "IL": 7441,
      "Imp": 7442,
      "Ips": 7443,
      "IAI": 7444,
      "Ipgen": 7445,
      "ImemDataWidth": 7446,
      "JTAG": 7447,
      "KS": 7448,
      "Keccak": 7449,
      "LIN": 7450,
      "Last": 7451,
      "Length": 7452,
      "LPG": 7453,
      "Local": 7454,
      "Ms": 7455,
      "Mgr": 7456,
      "Main": 7457,
      "Map": 7458,
      "MSB": 7459,
      "Macro": 7460,
      "More": 7461,
      "MCME": 7462,
      "MASK": 7463,
      "MHPMCounter": 7464,
      "NER": 7465,
      "NPadIdx": 7466,
      "NACK": 7467,
      "NIST": 7468,
      "NIoBanks": 7469,
      "NOutputs": 7470,
      "NKS": 7471,
      "OpenOCD": 7472,
      "PP": 7473,
      "Pt": 7474,
      "Pack": 7475,
      "PTH": 7476,
      "Phase": 7477,
      "PRESENT": 7478,
      "PULP": 7479,
      "PPC": 7480,
      "Parallel": 7481,
      "PATTGEN": 7482,
      "Quick": 7483,
      "RI": 7484,
      "RX": 7485,
      "RZ": 7486,
      "Return": 7487,
      "SI": 7488,
      "Sy": 7489,
      "Slow": 7490,
      "Soc": 7491,
      "Specif": 7492,
      "Support": 7493,
      "SON": 7494,
      "SION": 7495,
      "Serial": 7496,
      "Saturate": 7497,
      "SOC": 7498,
      "Subs": 7499,
      "Th": 7500,
      "Trans": 7501,
      "TileLink": 7502,
      "ToF": 7503,
      "TPM": 7504,
      "TYP": 7505,
      "TODO": 7506,
      "TDI": 7507,
      "Upon": 7508,
      "Using": 7509,
      "UTS": 7510,
      "Vect": 7511,
      "VERR": 7512,
      "Wr": 7513,
      "Win": 7514,
      "Window": 7515,
      "Xnor": 7516,
      "You": 7517,
      "[^": 7518,
      "]);": 7519,
      "]).": 7520,
      "]}},": 7521,
      "]};": 7522,
      "_(": 7523,
      "_{": 7524,
      "`]": 7525,
      "aware": 7526,
      "bz": 7527,
      "ble": 7528,
      "bine": 7529,
      "bstract": 7530,
      "cj": 7531,
      "cip": 7532,
      "cible": 7533,
      "cbn": 7534,
      "cRes": 7535,
      "cise": 7536,
      "cinst": 7537,
      "cement": 7538,
      "curs": 7539,
      "culate": 7540,
      "dC": 7541,
      "dy": 7542,
      "dor": 7543,
      "dtm": 7544,
      "ef": 7545,
      "eam": 7546,
      "eil": 7547,
      "equ": 7548,
      "early": 7549,
      "fc": 7550,
      "fw": 7551,
      "find": 7552,
      "feed": 7553,
      "gl": 7554,
      "git": 7555,
      "ged": 7556,
      "gent": 7557,
      "gad": 7558,
      "gpr": 7559,
      "gold": 7560,
      "glossary": 7561,
      "hi": 7562,
      "hr": 7563,
      "hit": 7564,
      "han": 7565,
      "hook": 7566,
      "hCA": 7567,
      "hensive": 7568,
      "iB": 7569,
      "ior": 7570,
      "iec": 7571,
      "ium": 7572,
      "jor": 7573,
      "kdi": 7574,
      "kmul": 7575,
      "ltr": 7576,
      "length": 7577,
      "lier": 7578,
      "mt": 7579,
      "msec": 7580,
      "may": 7581,
      "make": 7582,
      "miss": 7583,
      "mtimecmp": 7584,
      "nv": 7585,
      "nost": 7586,
      "nDw": 7587,
      "next": 7588,
      "ole": 7589,
      "oul": 7590,
      "ogle": 7591,
      "offset": 7592,
      "pW": 7593,
      "param": 7594,
      "perf": 7595,
      "pcl": 7596,
      "pha": 7597,
      "pcnt": 7598,
      "pause": 7599,
      "pace": 7600,
      "pipel": 7601,
      "predict": 7602,
      "panding": 7603,
      "passthrough": 7604,
      "qn": 7605,
      "rid": 7606,
      "rink": 7607,
      "rml": 7608,
      "rma": 7609,
      "rgf": 7610,
      "rLength": 7611,
      "sl": 7612,
      "sgen": 7613,
      "split": 7614,
      "sified": 7615,
      "sTotal": 7616,
      "slic": 7617,
      "suffixes": 7618,
      "safe": 7619,
      "ta": 7620,
      "tle": 7621,
      "table": 7622,
      "two": 7623,
      "tility": 7624,
      "tick": 7625,
      "tie": 7626,
      "tivation": 7627,
      "taken": 7628,
      "uid": 7629,
      "uous": 7630,
      "uously": 7631,
      "uvmdvgen": 7632,
      "vr": 7633,
      "vit": 7634,
      "vans": 7635,
      "vious": 7636,
      "vseq": 7637,
      "wd": 7638,
      "wp": 7639,
      "wit": 7640,
      "wide": 7641,
      "wvalid": 7642,
      "where": 7643,
      "wired": 7644,
      "wready": 7645,
      "xFF": 7646,
      "xDepth": 7647,
      "xbar": 7648,
      "ySrc": 7649,
      "ymmetric": 7650,
      "ybrid": 7651,
      "{~": 7652,
      "},": 7653,
      "Ġul": 7654,
      "Ġide": 7655,
      "Ġ63": 7656,
      "Ġ56": 7657,
      "ĠâĶ": 7658,
      "Ġ9999": 7659,
      "ĠZero": 7660,
      "Ġ__": 7661,
      "ining": 7662,
      "indep": 7663,
      "infrastructure": 7664,
      "inuously": 7665,
      "erence": 7666,
      "erms": 7667,
      "erEnable": 7668,
      "erging": 7669,
      "eristics": 7670,
      "uts": 7671,
      "uty": 7672,
      "utting": 7673,
      "uthent": 7674,
      "Ġinline": 7675,
      "Ġindi": 7676,
      "Ġinner": 7677,
      "Ġinou": 7678,
      "Ġinpu": 7679,
      "Ġinference": 7680,
      "Ġinferred": 7681,
      "Ġincons": 7682,
      "Ġinspect": 7683,
      "Ġtw": 7684,
      "Ġtil": 7685,
      "Ġtile": 7686,
      "Ġtech": 7687,
      "Ġtake": 7688,
      "Ġturn": 7689,
      "Ġtaps": 7690,
      "Ġtiled": 7691,
      "Ġterm": 7692,
      "Ġteam": 7693,
      "//----------------------------------------------------------------": 7694,
      "reng": 7695,
      "reuse": 7696,
      "reating": 7697,
      "related": 7698,
      "rehensive": 7699,
      "repcnt": 7700,
      "loop": 7701,
      "ste": 7702,
      "stim": 7703,
      "stit": 7704,
      "stop": 7705,
      "stack": 7706,
      "store": 7707,
      "strobe": 7708,
      "Ġapp": 7709,
      "Ġahb": 7710,
      "Ġactions": 7711,
      "Ġpipe": 7712,
      "Ġpending": 7713,
      "Ġpiec": 7714,
      "Ġpsgen": 7715,
      "ato": 7716,
      "ather": 7717,
      "atial": 7718,
      "aturation": 7719,
      "atified": 7720,
      "ors": 7721,
      "oring": 7722,
      "orrect": 7723,
      "encoding": 7724,
      "enPort": 7725,
      "environment": 7726,
      "ice": 7727,
      "icip": 7728,
      "icient": 7729,
      "lee": 7730,
      "least": 7731,
      "letes": 7732,
      "leading": 7733,
      "leader": 7734,
      "Ġcut": 7735,
      "Ġcat": 7736,
      "Ġctr": 7737,
      "Ġcache": 7738,
      "ĠcSHA": 7739,
      "Ġceremony": 7740,
      "Ġcrate": 7741,
      "Ġcategory": 7742,
      "Ġceil": 7743,
      "Ġckmul": 7744,
      "heme": 7745,
      "ari": 7746,
      "aring": 7747,
      "architecture": 7748,
      "imi": 7749,
      "imet": 7750,
      "imens": 7751,
      "Ġload": 7752,
      "iting": 7753,
      "itted": 7754,
      "itivity": 7755,
      "deq": 7756,
      "Ġsi": 7757,
      "Ġsu": 7758,
      "Ġsrst": 7759,
      "Ġscore": 7760,
      "Ġspon": 7761,
      "Ġsink": 7762,
      "Ġswe": 7763,
      "Ġsummary": 7764,
      "Ġscope": 7765,
      "Ġsleep": 7766,
      "Ġscrmbl": 7767,
      "ĠsLow": 7768,
      "Ġsaturate": 7769,
      "Ġsaturation": 7770,
      "Ġslee": 7771,
      "Ġbl": 7772,
      "Ġbn": 7773,
      "Ġbat": 7774,
      "Ġbal": 7775,
      "Ġbins": 7776,
      "Ġblob": 7777,
      "ames": 7778,
      "allow": 7779,
      "aller": 7780,
      "Ġ///": 7781,
      "Ġ////////": 7782,
      "Ġ/////": 7783,
      "etition": 7784,
      "-------": 7785,
      "----|:---------|---------:": 7786,
      "dumm": 7787,
      "Ġ([": 7788,
      "Ġ(~": 7789,
      "Ġ((~": 7790,
      "Ġfr": 7791,
      "Ġfw": 7792,
      "Ġfas": 7793,
      "Ġfab": 7794,
      "Ġfew": 7795,
      "Ġfpga": 7796,
      "Ġfuses": 7797,
      "Ġfalse": 7798,
      "Ġfraction": 7799,
      "ctn": 7800,
      "any": 7801,
      "anion": 7802,
      "aning": 7803,
      "anently": 7804,
      "anced": 7805,
      "ises": 7806,
      "issim": 7807,
      "Ġdi": 7808,
      "Ġdro": 7809,
      "Ġdid": 7810,
      "Ġdoc": 7811,
      "Ġdpi": 7812,
      "Ġday": 7813,
      "Ġdatasheet": 7814,
      "Ġrf": 7815,
      "Ġral": 7816,
      "Ġration": 7817,
      "Ġrve": 7818,
      "Ġrot": 7819,
      "Ġrdr": 7820,
      "Ġrma": 7821,
      "Ġrgl": 7822,
      "Ġrdeq": 7823,
      "Ġ../": 7824,
      "Ġ...": 7825,
      "rored": 7826,
      "rovit": 7827,
      "ingIps": 7828,
      "Ġparameterizable": 7829,
      "Ġoutp": 7830,
      "Ġoutcom": 7831,
      "Ġoutlines": 7832,
      "Ġoutstanding": 7833,
      "Ġoutgoing": 7834,
      "Ġintq": 7835,
      "Ġintent": 7836,
      "Ġtople": 7837,
      "Ġoutputting": 7838,
      "ckPadIdx": 7839,
      "ckTime": 7840,
      "rimCdcRand": 7841,
      "ifs": 7842,
      "ifetch": 7843,
      "ertific": 7844,
      "orter": 7845,
      "Ġwx": 7846,
      "Ġwel": 7847,
      "Ġwatermark": 7848,
      "Ġwrong": 7849,
      "Ġwoul": 7850,
      "ndpoint": 7851,
      "Ġrea": 7852,
      "Ġrep": 7853,
      "Ġrese": 7854,
      "Ġrely": 7855,
      "Ġrestr": 7856,
      "Ġrepro": 7857,
      "Ġreview": 7858,
      "Ġrepe": 7859,
      "Ġrelease": 7860,
      "Ġrevision": 7861,
      "Ġreuses": 7862,
      "Ġresee": 7863,
      "Ġreverse": 7864,
      "cover": 7865,
      "codi": 7866,
      "coalescing": 7867,
      "color": 7868,
      "idpi": 7869,
      "that": 7870,
      "thru": 7871,
      "Ġclkhdr": 7872,
      "ulato": 7873,
      "ecess": 7874,
      "ecrypt": 7875,
      "nique": 7876,
      "acil": 7877,
      "accept": 7878,
      "--------|--------------------------------": 7879,
      "-----------|": 7880,
      "--------|:---------|---------:|:----------------------------------------------------------------": 7881,
      "igna": 7882,
      "Ġmpi": 7883,
      "Ġmax": 7884,
      "Ġmir": 7885,
      "Ġmere": 7886,
      "Ġmpp": 7887,
      "Ġmie": 7888,
      "Ġmstatus": 7889,
      "Ġmargin": 7890,
      "Ġmiss": 7891,
      "Ġmtimecmp": 7892,
      "Ġmerging": 7893,
      "ĠIV": 7894,
      "ĠIEE": 7895,
      "ĠICCM": 7896,
      "ĠIrLength": 7897,
      "Ġ144": 7898,
      "ĠSO": 7899,
      "ĠSlow": 7900,
      "ĠSail": 7901,
      "ĠSOP": 7902,
      "ĠSince": 7903,
      "ĠSleep": 7904,
      "ĠSpare": 7905,
      "ĠSZW": 7906,
      "ĠSideload": 7907,
      "ĠTrst": 7908,
      "ĠTdo": 7909,
      "ĠTms": 7910,
      "ĠTdi": 7911,
      "ĠTAP": 7912,
      "ĠThrough": 7913,
      "ĠTxWidth": 7914,
      "ĠTerms": 7915,
      "ĠTckPadIdx": 7916,
      "umT": 7917,
      "ume": 7918,
      "umns": 7919,
      "Ġforcing": 7920,
      "aders": 7921,
      "adder": 7922,
      "regist": 7923,
      "ĠClo": 7924,
      "ĠCur": 7925,
      "ĠCould": 7926,
      "ĠCode": 7927,
      "ĠCIP": 7928,
      "ĠCross": 7929,
      "ĠCopy": 7930,
      "ĠCTN": 7931,
      "ĠCryptolib": 7932,
      "ĠDM": 7933,
      "ĠDO": 7934,
      "ĠDo": 7935,
      "ĠDest": 7936,
      "ĠDio": 7937,
      "ĠDFF": 7938,
      "ĠDone": 7939,
      "ĠDue": 7940,
      "ĠDRsp": 7941,
      "ĠDMEM": 7942,
      "ĠDoe": 7943,
      "ĠDirectory": 7944,
      "ĠDReq": 7945,
      "ĠDioPadType": 7946,
      "ĠDcRes": 7947,
      "ĠDuty": 7948,
      "ĠDecrypt": 7949,
      "WidthCheck": 7950,
      "datapath": 7951,
      "Ġdatabase": 7952,
      "Ġdecom": 7953,
      "Ġdecr": 7954,
      "Ġdecoding": 7955,
      "Ġdeletes": 7956,
      "Ġalt": 7957,
      "Ġthird": 7958,
      "ĠRZ": 7959,
      "ĠRun": 7960,
      "ĠRust": 7961,
      "ĠRSA": 7962,
      "ĠRatio": 7963,
      "lockstep": 7964,
      "abl": 7965,
      "ably": 7966,
      "Ġha": 7967,
      "Ġhit": 7968,
      "Ġhint": 7969,
      "Ġhybrid": 7970,
      "Ġcoord": 7971,
      "Ġcoprocessor": 7972,
      "Ġcoalescing": 7973,
      "Ġbitwise": 7974,
      "Ġbitwidth": 7975,
      "ipped": 7976,
      "iplier": 7977,
      "agnost": 7978,
      "tpMacro": 7979,
      "sequ": 7980,
      "Ġask": 7981,
      "Ġaspect": 7982,
      "Ġasymmetric": 7983,
      "endencies": 7984,
      "abled": 7985,
      "ĠAO": 7986,
      "ĠABI": 7987,
      "ĠABC": 7988,
      "ĠAccelerator": 7989,
      "ĠAbstract": 7990,
      "ĠAgent": 7991,
      "ĠAckTime": 7992,
      "ĠPK": 7993,
      "ĠPo": 7994,
      "ĠPage": 7995,
      "ĠPtr": 7996,
      "ĠPred": 7997,
      "ĠPseu": 7998,
      "ĠPkt": 7999,
      "ĠPCI": 8000,
      "ĠPPC": 8001,
      "ĠParallel": 8002,
      "ĠPATTGEN": 8003,
      "ĠOverride": 8004,
      "ĠOVERR": 8005,
      "ĠOtpMacro": 8006,
      "ibilities": 8007,
      "Ġns": 8008,
      "Ġnor": 8009,
      "ĠnSh": 8010,
      "Ġnecess": 8011,
      "Ġstreng": 8012,
      "exp": 8013,
      "existing": 8014,
      "extract": 8015,
      "Ġconcept": 8016,
      "ceName": 8017,
      "olve": 8018,
      "olith": 8019,
      "olations": 8020,
      "usses": 8021,
      "Ġonto": 8022,
      "Ġ^~": 8023,
      "ocation": 8024,
      "NumR": 8025,
      "NumKey": 8026,
      "NumStateP": 8027,
      "opt": 8028,
      "opcode": 8029,
      "istent": 8030,
      "istory": 8031,
      "istenPort": 8032,
      "Ġ`./": 8033,
      "Ġ`*_": 8034,
      "erference": 8035,
      "3276": 8036,
      "unicate": 8037,
      "unpacking": 8038,
      "unimi": 8039,
      "Ġld": 8040,
      "Ġlan": 8041,
      "Ġlang": 8042,
      "Ġlibraries": 8043,
      "Ġlifecycle": 8044,
      "atever": 8045,
      "Ġunhardened": 8046,
      "Ġunsig": 8047,
      "Ġunloaded": 8048,
      "/////////////": 8049,
      "-------------------------": 8050,
      "----------------|----------------": 8051,
      "iotic": 8052,
      "ĠEC": 8053,
      "ĠEX": 8054,
      "ĠEnt": 8055,
      "ĠECD": 8056,
      "ĠEven": 8057,
      "ĠEvent": 8058,
      "ĠEvalu": 8059,
      "ĠEEPR": 8060,
      "ĠEndpoint": 8061,
      "../../../": 8062,
      "uraged": 8063,
      "Ġencoder": 8064,
      "Ġencodi": 8065,
      "class": 8066,
      "Ġ|=": 8067,
      "Ġ|-------------------------": 8068,
      "wrdata": 8069,
      "upload": 8070,
      "ĠBase": 8071,
      "ĠBLA": 8072,
      "ĠBlack": 8073,
      "ĠBucketHt": 8074,
      "Ġ2023": 8075,
      "ferent": 8076,
      "ĠML": 8077,
      "ĠMost": 8078,
      "ĠMIN": 8079,
      "ĠMast": 8080,
      "ĠMake": 8081,
      "ĠMUX": 8082,
      "ĠMinim": 8083,
      "ĠMIOs": 8084,
      "ĠMetho": 8085,
      "ĠMailbox": 8086,
      "ĠMOD": 8087,
      "ĠMioPadType": 8088,
      "ĠMarkdown": 8089,
      "ĠMBX": 8090,
      "ĠMMCME": 8091,
      "atedly": 8092,
      "Ġresolved": 8093,
      "Ġresources": 8094,
      "artFraction": 8095,
      "Ġusage": 8096,
      "vidual": 8097,
      "Ġtestmode": 8098,
      "Ġtestbenches": 8099,
      "ĠHand": 8100,
      "ĠHint": 8101,
      "ĠHREAD": 8102,
      "ĠHence": 8103,
      "ĠHigh": 8104,
      "ĠHRsp": 8105,
      "ĠHarden": 8106,
      "ĠHook": 8107,
      "ĠHReq": 8108,
      "ĠHealth": 8109,
      "Ġreggen": 8110,
      "intsrc": 8111,
      "interference": 8112,
      "ĠFF": 8113,
      "ĠFi": 8114,
      "ĠFunctional": 8115,
      "ĠFilter": 8116,
      "ĠFpga": 8117,
      "ĠFatal": 8118,
      "ĠFeature": 8119,
      "ĠFinally": 8120,
      "Ġcomposed": 8121,
      "drive": 8122,
      "drbg": 8123,
      "Ġsigna": 8124,
      "Ġsigned": 8125,
      "Ġsigning": 8126,
      "mdBook": 8127,
      "api": 8128,
      "application": 8129,
      "ĠThey": 8130,
      "Ġlocality": 8131,
      "ĠĠĠĠĠĠĠĠĠĠĠĠĠĠĠĠĠĠĠĠĠĠĠĠĠĠĠĠĠĠĠĠĠĠĠĠĠĠĠĠĠĠĠĠĠĠĠĠĠĠĠĠĠĠĠĠĠĠĠ": 8132,
      "ADDRES": 8133,
      "ysically": 8134,
      "**)": 8135,
      "Ġsignalled": 8136,
      "Ġsignalling": 8137,
      "Ġclocked": 8138,
      "quified": 8139,
      "Ġgn": 8140,
      "Ġgit": 8141,
      "Ġgcm": 8142,
      "Ġgather": 8143,
      "Ġproper": 8144,
      "Ġprobe": 8145,
      "Ġprobing": 8146,
      "Ġpromote": 8147,
      "outer": 8148,
      "outCnt": 8149,
      "outside": 8150,
      "ĠWh": 8151,
      "ĠWhether": 8152,
      "trap": 8153,
      "trust": 8154,
      "trav": 8155,
      "tracing": 8156,
      "tractions": 8157,
      "ĠVect": 8158,
      "ĠVER": 8159,
      "ĠVECTOR": 8160,
      "ĠVCMA": 8161,
      "ĠVigna": 8162,
      "eps": 8163,
      "ĠNr": 8164,
      "ĠNBuf": 8165,
      "ĠNOTE": 8166,
      "ĠNREG": 8167,
      "ĠNMI": 8168,
      "ĠNMioPads": 8169,
      "ĠNIoBanks": 8170,
      "ĠNEndpoints": 8171,
      "ĠNDioPads": 8172,
      "ĠNRZ": 8173,
      "Ġcheckers": 8174,
      "ĠIncoming": 8175,
      "ĠIndexW": 8176,
      "Ġresetting": 8177,
      "ĠEnab": 8178,
      "ĠEnMask": 8179,
      "ĠEnRst": 8180,
      "ĠEnPro": 8181,
      "ĠEngine": 8182,
      "ĠEnRzHs": 8183,
      "Ġ320": 8184,
      "Ġadhere": 8185,
      "generation": 8186,
      "generates": 8187,
      "generators": 8188,
      "Ġcontinuously": 8189,
      "invert": 8190,
      "ived": 8191
    },
    "merges": [
      [
        "Ġ",
        "Ġ"
      ],
      [
        "č",
        "Ċ"
      ],
      [
        "č",
        "čĊ"
      ],
      [
        "ĠĠ",
        "ĠĠ"
      ],
      [
        "i",
        "n"
      ],
      [
        "e",
        "r"
      ],
      [
        "u",
        "t"
      ],
      [
        "ĠĠĠĠ",
        "ĠĠĠĠ"
      ],
      [
        "Ġ",
        "in"
      ],
      [
        "Ġ",
        "t"
      ],
      [
        "p",
        "ut"
      ],
      [
        "/",
        "/"
      ],
      [
        "-",
        "-"
      ],
      [
        "r",
        "e"
      ],
      [
        "l",
        "o"
      ],
      [
        "s",
        "t"
      ],
      [
        "Ġ",
        "a"
      ],
      [
        "Ġ",
        "p"
      ],
      [
        "Ġin",
        "put"
      ],
      [
        "a",
        "t"
      ],
      [
        "o",
        "r"
      ],
      [
        "e",
        "n"
      ],
      [
        "i",
        "c"
      ],
      [
        "l",
        "e"
      ],
      [
        "o",
        "n"
      ],
      [
        "Ġ",
        "c"
      ],
      [
        "ĠĠ",
        "Ġ"
      ],
      [
        "h",
        "e"
      ],
      [
        "a",
        "r"
      ],
      [
        "i",
        "m"
      ],
      [
        "Ġ",
        "lo"
      ],
      [
        "i",
        "t"
      ],
      [
        "d",
        "e"
      ],
      [
        "Ġ",
        "o"
      ],
      [
        "Ġ",
        "s"
      ],
      [
        "Ġ",
        "b"
      ],
      [
        "g",
        "ic"
      ],
      [
        "a",
        "m"
      ],
      [
        "Ġlo",
        "gic"
      ],
      [
        "a",
        "l"
      ],
      [
        "Ġ",
        "//"
      ],
      [
        "e",
        "t"
      ],
      [
        "Ġt",
        "he"
      ],
      [
        "--",
        "--"
      ],
      [
        "Ġ",
        "["
      ],
      [
        "m",
        "o"
      ],
      [
        "Ġ",
        "="
      ],
      [
        "d",
        "u"
      ],
      [
        "e",
        "d"
      ],
      [
        "Ġ",
        "("
      ],
      [
        "e",
        "s"
      ],
      [
        "Ġ",
        "f"
      ],
      [
        "du",
        "le"
      ],
      [
        "mo",
        "dule"
      ],
      [
        "c",
        "t"
      ],
      [
        "a",
        "s"
      ],
      [
        "a",
        "n"
      ],
      [
        "ar",
        "am"
      ],
      [
        "i",
        "s"
      ],
      [
        "Ġ",
        "d"
      ],
      [
        "l",
        "k"
      ],
      [
        "ĠĠĠĠĠĠĠĠ",
        "ĠĠĠĠĠĠĠĠ"
      ],
      [
        "i",
        "on"
      ],
      [
        "Ġ",
        "r"
      ],
      [
        ":",
        ":"
      ],
      [
        "p",
        "k"
      ],
      [
        "Ġ",
        "."
      ],
      [
        "pk",
        "g"
      ],
      [
        "r",
        "o"
      ],
      [
        "at",
        "a"
      ],
      [
        "aram",
        "et"
      ],
      [
        "aramet",
        "er"
      ],
      [
        "in",
        "g"
      ],
      [
        "Ġp",
        "arameter"
      ],
      [
        "Ġo",
        "ut"
      ],
      [
        "Ġin",
        "t"
      ],
      [
        "Ġt",
        "o"
      ],
      [
        "Ġout",
        "put"
      ],
      [
        "i",
        "g"
      ],
      [
        "c",
        "k"
      ],
      [
        "r",
        "im"
      ],
      [
        "i",
        "f"
      ],
      [
        "er",
        "t"
      ],
      [
        "or",
        "t"
      ],
      [
        "Ġ",
        "w"
      ],
      [
        "p",
        "ort"
      ],
      [
        "n",
        "d"
      ],
      [
        "Ġ",
        "re"
      ],
      [
        "c",
        "o"
      ],
      [
        "i",
        "d"
      ],
      [
        ")",
        ";"
      ],
      [
        "Ġ",
        "im"
      ],
      [
        "t",
        "h"
      ],
      [
        "Ġc",
        "lk"
      ],
      [
        "u",
        "l"
      ],
      [
        "e",
        "c"
      ],
      [
        "Ġ",
        "u"
      ],
      [
        "Ġp",
        "rim"
      ],
      [
        "n",
        "i"
      ],
      [
        "a",
        "c"
      ],
      [
        "----",
        "----"
      ],
      [
        "en",
        "t"
      ],
      [
        "ig",
        "n"
      ],
      [
        "0",
        "0"
      ],
      [
        "Ġim",
        "port"
      ],
      [
        "Ġ",
        "m"
      ],
      [
        "Ġ",
        "I"
      ],
      [
        "Ġr",
        "st"
      ],
      [
        "Ġ",
        "1"
      ],
      [
        "Ġ",
        "S"
      ],
      [
        "er",
        "r"
      ],
      [
        "Ġb",
        "e"
      ],
      [
        "Ġ",
        "T"
      ],
      [
        "u",
        "m"
      ],
      [
        "//",
        "//"
      ],
      [
        "Ġf",
        "or"
      ],
      [
        "::",
        "*"
      ],
      [
        "::*",
        ";"
      ],
      [
        "n",
        "t"
      ],
      [
        "ĠĠĠĠ",
        "ĠĠĠ"
      ],
      [
        "a",
        "d"
      ],
      [
        "re",
        "g"
      ],
      [
        "id",
        "th"
      ],
      [
        "Ġ",
        "C"
      ],
      [
        "Ġ",
        "is"
      ],
      [
        "g",
        "r"
      ],
      [
        "Ġ",
        "D"
      ],
      [
        "at",
        "ion"
      ],
      [
        "Ġo",
        "f"
      ],
      [
        "W",
        "idth"
      ],
      [
        "Ġa",
        "nd"
      ],
      [
        "e",
        "st"
      ],
      [
        "d",
        "ata"
      ],
      [
        "Ġd",
        "ata"
      ],
      [
        "#",
        "("
      ],
      [
        "Ġ",
        "de"
      ],
      [
        "Ġa",
        "l"
      ],
      [
        "r",
        "l"
      ],
      [
        "r",
        "st"
      ],
      [
        "as",
        "s"
      ],
      [
        "ct",
        "rl"
      ],
      [
        "Ġt",
        "h"
      ],
      [
        "de",
        "d"
      ],
      [
        "u",
        "b"
      ],
      [
        "v",
        "e"
      ],
      [
        "Ġ",
        "R"
      ],
      [
        "c",
        "lk"
      ],
      [
        "lo",
        "ck"
      ],
      [
        "a",
        "b"
      ],
      [
        "Ġ",
        "h"
      ],
      [
        "i",
        "l"
      ],
      [
        "ĠĠĠĠĠĠĠĠ",
        "ĠĠĠĠ"
      ],
      [
        "Ġt",
        "l"
      ],
      [
        "Ġc",
        "o"
      ],
      [
        "Ġb",
        "it"
      ],
      [
        "i",
        "p"
      ],
      [
        "a",
        "g"
      ],
      [
        "Ġ",
        "*"
      ],
      [
        "]",
        "("
      ],
      [
        "t",
        "p"
      ],
      [
        "s",
        "e"
      ],
      [
        "s",
        "ign"
      ],
      [
        ".",
        "/"
      ],
      [
        "Ġa",
        "s"
      ],
      [
        "en",
        "d"
      ],
      [
        "v",
        "er"
      ],
      [
        "ab",
        "le"
      ],
      [
        ".",
        "./"
      ],
      [
        "Ġ",
        "A"
      ],
      [
        "e",
        "ct"
      ],
      [
        "m",
        "gr"
      ],
      [
        "Ġ",
        "P"
      ],
      [
        "ub",
        "i"
      ],
      [
        "ro",
        "m"
      ],
      [
        "ass",
        "ert"
      ],
      [
        "t",
        "l"
      ],
      [
        "Ġ",
        "O"
      ],
      [
        "c",
        "h"
      ],
      [
        "lo",
        "w"
      ],
      [
        ")",
        ","
      ],
      [
        "i",
        "b"
      ],
      [
        "Ġ",
        "n"
      ],
      [
        "Ġ",
        "st"
      ],
      [
        "Ġ",
        "#("
      ],
      [
        "g",
        "en"
      ],
      [
        "e",
        "x"
      ],
      [
        "Ġc",
        "on"
      ],
      [
        "e",
        "m"
      ],
      [
        "c",
        "e"
      ],
      [
        "o",
        "l"
      ],
      [
        "u",
        "s"
      ],
      [
        "as",
        "h"
      ],
      [
        "Ġ",
        "on"
      ],
      [
        "s",
        "v"
      ],
      [
        "in",
        "d"
      ],
      [
        "Ġ",
        "^"
      ],
      [
        "Ġs",
        "y"
      ],
      [
        "it",
        "h"
      ],
      [
        "o",
        "c"
      ],
      [
        "k",
        "e"
      ],
      [
        "N",
        "um"
      ],
      [
        "o",
        "p"
      ],
      [
        "w",
        "a"
      ],
      [
        "i",
        "st"
      ],
      [
        "ĠĠĠĠ",
        "Ġ"
      ],
      [
        "Ġ",
        "`"
      ],
      [
        "er",
        "f"
      ],
      [
        "3",
        "2"
      ],
      [
        "u",
        "n"
      ],
      [
        "ar",
        "d"
      ],
      [
        "Ġ",
        "l"
      ],
      [
        "at",
        "e"
      ],
      [
        "erf",
        "ac"
      ],
      [
        "Ġu",
        "n"
      ],
      [
        "l",
        "y"
      ],
      [
        "////",
        "////"
      ],
      [
        "#",
        "#"
      ],
      [
        "m",
        "ubi"
      ],
      [
        "Ġtl",
        "ul"
      ],
      [
        "--------",
        "--------"
      ],
      [
        "s",
        "ec"
      ],
      [
        "a",
        "in"
      ],
      [
        "i",
        "o"
      ],
      [
        "Ġ",
        "&"
      ],
      [
        "p",
        "l"
      ],
      [
        "Ġ",
        "err"
      ],
      [
        "h",
        "w"
      ],
      [
        "it",
        "y"
      ],
      [
        "v",
        "ic"
      ],
      [
        "o",
        "t"
      ],
      [
        "Ġw",
        "ith"
      ],
      [
        "Ġ",
        "E"
      ],
      [
        "he",
        "ck"
      ],
      [
        "vic",
        "e"
      ],
      [
        "../",
        "../"
      ],
      [
        "s",
        "r"
      ],
      [
        "u",
        "r"
      ],
      [
        "sign",
        "ed"
      ],
      [
        "h",
        "t"
      ],
      [
        "an",
        "d"
      ],
      [
        "Ġ",
        "en"
      ],
      [
        "Ġb",
        "y"
      ],
      [
        "ct",
        "ion"
      ],
      [
        "sec",
        "ded"
      ],
      [
        "e",
        "l"
      ],
      [
        "Ġ",
        "0"
      ],
      [
        "c",
        "l"
      ],
      [
        "Ġ",
        "\""
      ],
      [
        "Ġun",
        "signed"
      ],
      [
        "Ġ",
        "|"
      ],
      [
        "v",
        "al"
      ],
      [
        "w",
        "r"
      ],
      [
        "u",
        "p"
      ],
      [
        "o",
        "w"
      ],
      [
        "c",
        "al"
      ],
      [
        "o",
        "m"
      ],
      [
        "Ġ",
        "B"
      ],
      [
        "Ġ",
        "2"
      ],
      [
        "Ġ^",
        "("
      ],
      [
        "f",
        "er"
      ],
      [
        "p",
        "ec"
      ],
      [
        "i",
        "re"
      ],
      [
        "u",
        "f"
      ],
      [
        "y",
        "p"
      ],
      [
        "h",
        "is"
      ],
      [
        "re",
        "s"
      ],
      [
        "cl",
        "u"
      ],
      [
        "Ġ",
        ");"
      ],
      [
        "Ġ",
        "M"
      ],
      [
        "y",
        "n"
      ],
      [
        "co",
        "re"
      ],
      [
        "at",
        "ed"
      ],
      [
        "Ġre",
        "s"
      ],
      [
        "ĠĠĠĠĠĠĠĠ",
        "Ġ"
      ],
      [
        "m",
        "ent"
      ],
      [
        "nd",
        "rom"
      ],
      [
        "ndrom",
        "e"
      ],
      [
        "j",
        "ect"
      ],
      [
        "ar",
        "t"
      ],
      [
        "Ġu",
        "s"
      ],
      [
        "clu",
        "de"
      ],
      [
        "v",
        "i"
      ],
      [
        "Ġt",
        "est"
      ],
      [
        "re",
        "q"
      ],
      [
        "g",
        "in"
      ],
      [
        "tp",
        "s"
      ],
      [
        "Ġ",
        "H"
      ],
      [
        ":",
        "//"
      ],
      [
        "i",
        "z"
      ],
      [
        "Ġre",
        "g"
      ],
      [
        "in",
        "t"
      ],
      [
        "00",
        "00"
      ],
      [
        "Ġ",
        "F"
      ],
      [
        "Ġth",
        "at"
      ],
      [
        "Ġco",
        "m"
      ],
      [
        "ht",
        "tps"
      ],
      [
        "b",
        "o"
      ],
      [
        "d",
        "r"
      ],
      [
        "h",
        "er"
      ],
      [
        "Ġs",
        "ign"
      ],
      [
        "Ġbe",
        "gin"
      ],
      [
        "m",
        "d"
      ],
      [
        "ul",
        "t"
      ],
      [
        "pec",
        "if"
      ],
      [
        "a",
        "p"
      ],
      [
        "ĠT",
        "he"
      ],
      [
        "Ġal",
        "ert"
      ],
      [
        "ag",
        "e"
      ],
      [
        "Ġlo",
        "cal"
      ],
      [
        "Ġ",
        "-"
      ],
      [
        "ĠI",
        "nt"
      ],
      [
        "a",
        "ck"
      ],
      [
        "Ġ",
        "it"
      ],
      [
        "ib",
        "ex"
      ],
      [
        "Ġb",
        "ind"
      ],
      [
        "ĠĠĠĠĠĠĠĠĠĠĠĠĠĠĠĠ",
        "ĠĠĠĠĠĠĠĠĠĠĠĠĠĠĠĠ"
      ],
      [
        "Ġerr",
        "or"
      ],
      [
        "A",
        "D"
      ],
      [
        "wa",
        "re"
      ],
      [
        "i",
        "al"
      ],
      [
        "p",
        "rim"
      ],
      [
        "f",
        "p"
      ],
      [
        "m",
        "ac"
      ],
      [
        "p",
        "i"
      ],
      [
        "y",
        "s"
      ],
      [
        "6",
        "4"
      ],
      [
        "l",
        "ert"
      ],
      [
        "*",
        "*"
      ],
      [
        "lo",
        "p"
      ],
      [
        "co",
        "m"
      ],
      [
        "Ġsign",
        "al"
      ],
      [
        "d",
        "v"
      ],
      [
        "Ġlocal",
        "p"
      ],
      [
        "Ġc",
        "lock"
      ],
      [
        "Ġa",
        "n"
      ],
      [
        "or",
        "g"
      ],
      [
        "Ġlocalp",
        "aram"
      ],
      [
        "in",
        "clude"
      ],
      [
        "fp",
        "v"
      ],
      [
        "Ġth",
        "is"
      ],
      [
        "Ġ*",
        "*"
      ],
      [
        "q",
        "u"
      ],
      [
        "Ġ",
        "g"
      ],
      [
        "F",
        "F"
      ],
      [
        "it",
        "an"
      ],
      [
        "Ġp",
        "ro"
      ],
      [
        "un",
        "ction"
      ],
      [
        "erfac",
        "es"
      ],
      [
        "ĠĠĠĠĠĠĠĠ",
        "ĠĠ"
      ],
      [
        "Ġsy",
        "ndrome"
      ],
      [
        "o",
        "ut"
      ],
      [
        "yn",
        "c"
      ],
      [
        "l",
        "ash"
      ],
      [
        "p",
        "le"
      ],
      [
        "Ġ",
        "W"
      ],
      [
        "3",
        "1"
      ],
      [
        "l",
        "er"
      ],
      [
        "t",
        "r"
      ],
      [
        "Ġ",
        "V"
      ],
      [
        "t",
        "b"
      ],
      [
        "ĠĠĠĠĠĠĠĠĠĠĠĠ",
        "ĠĠ"
      ],
      [
        "p",
        "o"
      ],
      [
        "t",
        "est"
      ],
      [
        "i",
        "ve"
      ],
      [
        "e",
        "p"
      ],
      [
        "Ġa",
        "re"
      ],
      [
        "t",
        "o"
      ],
      [
        "Ġ",
        "N"
      ],
      [
        "u",
        "nt"
      ],
      [
        "Ġc",
        "heck"
      ],
      [
        "ĠI",
        "n"
      ],
      [
        "y",
        "c"
      ],
      [
        "Ġ",
        "<"
      ],
      [
        "p",
        "er"
      ],
      [
        "ke",
        "y"
      ],
      [
        "Ġres",
        "et"
      ],
      [
        "end",
        "module"
      ],
      [
        "ic",
        "ation"
      ],
      [
        "ĠE",
        "n"
      ],
      [
        "h",
        "a"
      ],
      [
        "Ġ",
        "module"
      ],
      [
        "al",
        "ert"
      ],
      [
        "ĠĠĠĠ",
        "ĠĠ"
      ],
      [
        "ion",
        "s"
      ],
      [
        "Ġ",
        "if"
      ],
      [
        "c",
        "r"
      ],
      [
        "e",
        "g"
      ],
      [
        "as",
        "k"
      ],
      [
        "Ġ",
        "32"
      ],
      [
        "Ġa",
        "d"
      ],
      [
        "gen",
        "er"
      ],
      [
        "Ġcon",
        "t"
      ],
      [
        "i",
        "de"
      ],
      [
        "Ġl",
        "c"
      ],
      [
        "Ġal",
        "l"
      ],
      [
        "in",
        "v"
      ],
      [
        "on",
        "e"
      ],
      [
        "3",
        "9"
      ],
      [
        "am",
        "m"
      ],
      [
        "is",
        "c"
      ],
      [
        "yc",
        "le"
      ],
      [
        "u",
        "re"
      ],
      [
        "mo",
        "de"
      ],
      [
        "p",
        "y"
      ],
      [
        "Ġ",
        "e"
      ],
      [
        "t",
        "op"
      ],
      [
        "unction",
        "al"
      ],
      [
        "b",
        "it"
      ],
      [
        "i",
        "v"
      ],
      [
        "ĠĠĠĠĠĠĠĠĠĠĠĠ",
        "Ġ"
      ],
      [
        "Ġf",
        "lash"
      ],
      [
        "val",
        "id"
      ],
      [
        "ro",
        "l"
      ],
      [
        "ist",
        "er"
      ],
      [
        "M",
        "E"
      ],
      [
        "ard",
        "s"
      ],
      [
        "r",
        "isc"
      ],
      [
        "u",
        "x"
      ],
      [
        "d",
        "oc"
      ],
      [
        "l",
        "c"
      ],
      [
        "Ġo",
        "tp"
      ],
      [
        "c",
        "on"
      ],
      [
        "o",
        "st"
      ],
      [
        "as",
        "e"
      ],
      [
        "Ġw",
        "ire"
      ],
      [
        "i",
        "le"
      ],
      [
        "ip",
        "her"
      ],
      [
        "s",
        "ync"
      ],
      [
        "!",
        "["
      ],
      [
        "Ġ",
        "L"
      ],
      [
        "Ġp",
        "er"
      ],
      [
        "A",
        "S"
      ],
      [
        "t",
        "x"
      ],
      [
        "sv",
        "g"
      ],
      [
        "Ġ",
        "G"
      ],
      [
        "um",
        "ent"
      ],
      [
        "ag",
        "es"
      ],
      [
        "T",
        "he"
      ],
      [
        "l",
        "ist"
      ],
      [
        "st",
        "r"
      ],
      [
        "oc",
        "ument"
      ],
      [
        "ĠC",
        "lock"
      ],
      [
[...]
